<unk>	0
<s>	0
</s>	0
<pad>	0
in	-0
▁a	-1
en	-2
er	-3
▁s	-4
ein	-5
an	-6
ch	-7
▁ein	-8
ing	-9
it	-10
▁w	-11
▁in	-12
un	-13
▁b	-14
▁t	-15
▁m	-16
▁d	-17
on	-18
▁E	-19
▁A	-20
re	-21
▁Ein	-22
em	-23
ar	-24
▁M	-25
le	-26
▁g	-27
is	-28
▁p	-29
ra	-30
▁h	-31
el	-32
ro	-33
▁o	-34
es	-35
▁einem	-36
▁S	-37
he	-38
al	-39
▁an	-40
und	-41
la	-42
uf	-43
▁f	-44
▁F	-45
ei	-46
ck	-47
et	-48
or	-49
▁the	-50
▁c	-51
▁st	-52
at	-53
▁T	-54
ir	-55
▁on	-56
▁auf	-57
▁Man	-58
▁is	-59
▁mit	-60
▁H	-61
ung	-62
▁B	-63
▁Mann	-64
om	-65
▁und	-66
▁v	-67
and	-68
▁man	-69
eh	-70
▁of	-71
▁l	-72
ut	-73
▁and	-74
as	-75
ie	-76
▁K	-77
id	-78
▁einer	-79
ers	-80
▁Eine	-81
il	-82
rau	-83
▁G	-84
st	-85
▁P	-86
ith	-87
chen	-88
▁with	-89
im	-90
all	-91
op	-92
us	-93
ow	-94
▁Frau	-95
▁sit	-96
ol	-97
ter	-98
um	-99
ge	-100
▁k	-101
ur	-102
hr	-103
up	-104
ten	-105
▁wom	-106
▁Z	-107
iel	-108
▁sp	-109
ne	-110
wei	-111
ot	-112
▁St	-113
king	-114
▁sch	-115
ed	-116
wo	-117
▁are	-118
ss	-119
▁Mä	-120
▁der	-121
ich	-122
am	-123
▁W	-124
▁wh	-125
▁z	-126
ind	-127
▁to	-128
▁woman	-129
▁j	-130
▁r	-131
▁sh	-132
▁eine	-133
ig	-134
▁ro	-135
▁pla	-136
ach	-137
ad	-138
▁Zwei	-139
▁einen	-140
▁D	-141
▁J	-142
▁Two	-143
▁re	-144
▁at	-145
▁die	-146
eop	-147
irt	-148
ic	-149
▁bla	-150
eople	-151
og	-152
▁bo	-153
▁play	-154
ben	-155
▁im	-156
▁y	-157
▁bl	-158
▁Sch	-159
ild	-160
eht	-161
ting	-162
ear	-163
▁L	-164
oo	-165
ug	-166
▁gro	-167
▁R	-168
erson	-169
ber	-170
ier	-171
ent	-172
ack	-173
▁ch	-174
▁people	-175
▁ne	-176
▁sitz	-177
ide	-178
lein	-179
▁stand	-180
▁vor	-181
oung	-182
▁spiel	-183
ner	-184
gen	-185
▁wear	-186
▁Hund	-187
▁dog	-188
ßen	-189
▁wearing	-190
pe	-191
lt	-192
ite	-193
rei	-194
▁klein	-195
eb	-196
unge	-197
irl	-198
her	-199
ik	-200
end	-201
dchen	-202
▁von	-203
▁be	-204
▁Mädchen	-205
▁young	-206
▁wal	-207
▁Kind	-208
▁sich	-209
▁shirt	-210
▁girl	-211
ue	-212
▁boy	-213
be	-214
ard	-215
gt	-216
▁th	-217
▁Person	-218
ver	-219
▁dem	-220
▁white	-221
▁out	-222
ehen	-223
ße	-224
os	-225
old	-226
▁wat	-227
ell	-228
nner	-229
nen	-230
▁his	-231
▁n	-232
ile	-233
ts	-234
▁schw	-235
▁Männer	-236
ähr	-237
ab	-238
ahr	-239
▁la	-240
ass	-241
▁tr	-242
ce	-243
▁her	-244
▁sitting	-245
▁Stra	-246
ark	-247
ens	-248
te	-249
▁black	-250
▁zu	-251
arz	-252
▁red	-253
▁playing	-254
row	-255
▁wei	-256
▁stre	-257
▁steht	-258
au	-259
ick	-260
▁Junge	-261
▁blue	-262
own	-263
▁men	-264
▁fr	-265
▁child	-266
▁i	-267
▁den	-268
▁standing	-269
▁group	-270
leid	-271
▁sitzt	-272
der	-273
▁schwarz	-274
▁Gr	-275
ball	-276
über	-277
▁while	-278
ft	-279
▁sein	-280
uppe	-281
est	-282
▁hold	-283
▁street	-284
▁O	-285
hre	-286
ont	-287
isch	-288
▁bei	-289
▁co	-290
sch	-291
den	-292
▁Mens	-293
▁Straße	-294
▁walking	-295
▁über	-296
▁down	-297
▁loo	-298
▁blau	-299
▁e	-300
▁spielt	-301
de	-302
ul	-303
men	-304
ang	-305
▁Gruppe	-306
▁hä	-307
ion	-308
piel	-309
▁Menschen	-310
ere	-311
▁V	-312
▁un	-313
▁An	-314
▁sm	-315
itt	-316
uft	-317
▁front	-318
▁spr	-319
ren	-320
rü	-321
▁hält	-322
▁gra	-323
▁water	-324
▁um	-325
▁le	-326
ap	-327
▁C	-328
▁The	-329
än	-330
ks	-331
▁dur	-332
emd	-333
▁Personen	-334
▁or	-335
▁hat	-336
▁al	-337
ugh	-338
oard	-339
▁ra	-340
ze	-341
▁am	-342
▁ge	-343
▁aus	-344
ump	-345
side	-346
▁holding	-347
round	-348
▁Wass	-349
ain	-350
air	-351
▁Hemd	-352
▁run	-353
▁lä	-354
ingt	-355
ct	-356
▁as	-357
ag	-358
orm	-359
▁tra	-360
igh	-361
ink	-362
ür	-363
▁Kinder	-364
ff	-365
▁N	-366
▁cl	-367
▁car	-368
beit	-369
▁Wasser	-370
iv	-371
ying	-372
ehr	-373
ress	-374
ange	-375
▁Frauen	-376
we	-377
uch	-378
▁wor	-379
▁durch	-380
▁das	-381
▁Le	-382
imm	-383
▁jump	-384
▁neben	-385
acht	-386
enn	-387
▁som	-388
▁ar	-389
now	-390
rad	-391
hing	-392
▁up	-393
ock	-394
▁by	-395
ay	-396
▁eines	-397
▁spielen	-398
one	-399
av	-400
sen	-401
form	-402
▁Drei	-403
▁hin	-404
kat	-405
▁for	-406
▁women	-407
▁bu	-408
ittle	-409
raun	-410
ak	-411
ies	-412
aar	-413
entl	-414
▁rid	-415
ährt	-416
ler	-417
ährend	-418
▁dress	-419
reen	-420
▁sitzen	-421
▁während	-422
▁Thre	-423
to	-424
▁Three	-425
eil	-426
▁stehen	-427
uit	-428
▁fährt	-429
▁outside	-430
▁fl	-431
▁roten	-432
▁blauen	-433
▁looking	-434
hn	-435
amer	-436
▁thro	-437
▁ball	-438
▁through	-439
▁little	-440
rown	-441
ägt	-442
ern	-443
art	-444
▁mo	-445
▁green	-446
oot	-447
arge	-448
▁geht	-449
▁snow	-450
▁weißen	-451
ip	-452
elt	-453
icht	-454
iert	-455
ong	-456
▁large	-457
ans	-458
▁Leut	-459
lass	-460
auf	-461
▁Fahr	-462
kleid	-463
▁ist	-464
▁side	-465
ood	-466
▁ho	-467
▁brown	-468
▁orange	-469
ore	-470
▁springt	-471
ning	-472
▁kleines	-473
▁back	-474
▁braun	-475
▁macht	-476
eln	-477
rom	-478
▁grü	-479
▁ver	-480
aut	-481
arben	-482
ellow	-483
▁trägt	-484
alk	-485
äl	-486
yc	-487
▁entl	-488
▁Kleid	-489
amera	-490
hirt	-491
▁yellow	-492
▁entlang	-493
fen	-494
▁po	-495
▁over	-496
ep	-497
▁pos	-498
ight	-499
▁Hand	-500
▁kleiner	-501
fer	-502
les	-503
▁br	-504
▁into	-505
xt	-506
ure	-507
▁jung	-508
▁person	-509
▁Se	-510
▁children	-511
▁two	-512
ril	-513
▁gel	-514
▁their	-515
▁ma	-516
▁Leute	-517
age	-518
▁Fel	-519
▁he	-520
▁blon	-521
anz	-522
▁bik	-523
ire	-524
rand	-525
igen	-526
eboard	-527
ank	-528
▁build	-529
▁unter	-530
ud	-531
▁one	-532
ine	-533
ors	-534
ly	-535
ant	-536
▁ihr	-537
▁grass	-538
▁building	-539
unt	-540
ame	-541
farben	-542
▁next	-543
▁vers	-544
▁small	-545
uß	-546
▁dr	-547
▁ol	-548
▁running	-549
kateboard	-550
▁sw	-551
▁from	-552
▁People	-553
aby	-554
▁Ar	-555
ub	-556
str	-557
▁U	-558
uck	-559
▁riding	-560
otor	-561
▁weiß	-562
bo	-563
▁Ober	-564
▁zwei	-565
esch	-566
rowd	-567
▁gehen	-568
eck	-569
▁some	-570
▁Spiel	-571
▁ot	-572
▁con	-573
ungen	-574
▁hand	-575
▁Sp	-576
▁do	-577
▁Geb	-578
▁near	-579
▁Fahrrad	-580
▁watch	-581
ph	-582
▁te	-583
älter	-584
fahr	-585
let	-586
▁crowd	-587
▁et	-588
acket	-589
was	-590
ehrere	-591
ield	-592
eren	-593
walk	-594
▁jacket	-595
ort	-596
ian	-597
▁off	-598
▁tre	-599
are	-600
▁beach	-601
▁etwas	-602
uh	-603
gel	-604
▁it	-605
▁älter	-606
▁field	-607
▁seinem	-608
dy	-609
unter	-610
▁großen	-611
ask	-612
cht	-613
▁around	-614
▁Der	-615
spiel	-616
inter	-617
▁Strand	-618
ross	-619
▁schwarzen	-620
ist	-621
▁Fuß	-622
▁Ball	-623
äu	-624
our	-625
▁Gra	-626
▁läuft	-627
ull	-628
ück	-629
elm	-630
teil	-631
▁ihre	-632
ischen	-633
▁jumping	-634
ert	-635
▁wir	-636
oc	-637
▁Mehrere	-638
aus	-639
▁pink	-640
ity	-641
▁zus	-642
able	-643
▁sidewalk	-644
ieren	-645
▁I	-646
▁dressed	-647
▁se	-648
lich	-649
kleidet	-650
▁air	-651
alten	-652
▁sc	-653
gr	-654
acke	-655
qu	-656
▁work	-657
▁arbeit	-658
▁junge	-659
▁Frei	-660
▁Luft	-661
get	-662
ige	-663
lat	-664
ast	-665
▁Bl	-666
▁per	-667
weg	-668
ger	-669
▁park	-670
other	-671
▁nach	-672
ade	-673
▁für	-674
▁sur	-675
▁other	-676
ill	-677
▁Schne	-678
▁Jungen	-679
zeug	-680
▁Bo	-681
aum	-682
▁Oberteil	-683
board	-684
rille	-685
orts	-686
üh	-687
▁läch	-688
▁rock	-689
eans	-690
ander	-691
lasses	-692
▁Freien	-693
untain	-694
▁li	-695
▁stands	-696
▁perform	-697
ey	-698
che	-699
way	-700
▁As	-701
ture	-702
▁dogs	-703
itar	-704
ycle	-705
äude	-706
▁bike	-707
▁grünen	-708
omp	-709
▁ben	-710
▁table	-711
iling	-712
▁sits	-713
cer	-714
opf	-715
▁pic	-716
▁girls	-717
▁blond	-718
cing	-719
ling	-720
eball	-721
ennis	-722
lä	-723
▁wall	-724
ground	-725
▁col	-726
▁Schw	-727
▁rot	-728
ice	-729
▁gekleidet	-730
▁read	-731
aseball	-732
▁Schnee	-733
▁city	-734
▁dan	-735
▁Hunde	-736
▁schaut	-737
▁sk	-738
▁tal	-739
▁Jacke	-740
▁junger	-741
oto	-742
zen	-743
▁hoch	-744
▁Gras	-745
asket	-746
bei	-747
ive	-748
▁des	-749
▁picture	-750
ath	-751
fahrer	-752
▁another	-753
pf	-754
▁bic	-755
rep	-756
▁beh	-757
farbenen	-758
iat	-759
▁top	-760
▁er	-761
ieht	-762
ör	-763
pen	-764
▁bus	-765
amm	-766
aking	-767
▁Gebäude	-768
▁Kleidung	-769
aur	-770
ose	-771
ust	-772
uitar	-773
▁kleine	-774
eit	-775
▁head	-776
▁working	-777
do	-778
bt	-779
▁beim	-780
▁Tisch	-781
len	-782
agen	-783
▁behind	-784
▁guitar	-785
▁hinter	-786
ün	-787
ootball	-788
▁vorbei	-789
ahn	-790
unk	-791
▁Park	-792
▁carr	-793
▁Nä	-794
ühr	-795
ucht	-796
spieler	-797
sp	-798
▁ac	-799
ennt	-800
ation	-801
menge	-802
veral	-803
▁gelben	-804
▁In	-805
ew	-806
▁Kopf	-807
▁rennt	-808
▁sind	-809
▁Fußball	-810
ufen	-811
mp	-812
üt	-813
ething	-814
▁Hinter	-815
▁fa	-816
▁Hut	-817
▁something	-818
▁Fl	-819
▁gu	-820
gether	-821
▁together	-822
eig	-823
▁str	-824
ating	-825
▁clot	-826
use	-827
▁boys	-828
▁hair	-829
▁along	-830
▁camera	-831
iz	-832
alt	-833
grund	-834
▁Feld	-835
▁Stad	-836
sa	-837
▁Die	-838
▁Geh	-839
aurant	-840
▁talking	-841
fon	-842
▁soc	-843
angen	-844
▁food	-845
utz	-846
▁Son	-847
▁bet	-848
lag	-849
▁Nähe	-850
▁get	-851
iform	-852
▁walk	-853
ssen	-854
▁Ber	-855
itarre	-856
▁older	-857
▁schwarzer	-858
▁lady	-859
▁looks	-860
▁Vier	-861
▁blick	-862
asketball	-863
du	-864
iegt	-865
▁plays	-866
▁Menschenmenge	-867
dle	-868
▁mid	-869
▁clim	-870
▁soccer	-871
▁kleinen	-872
▁player	-873
▁anderen	-874
beiter	-875
letter	-876
▁Kamera	-877
▁kid	-878
kt	-879
▁walks	-880
▁en	-881
ster	-882
Shirt	-883
▁sand	-884
iger	-885
▁game	-886
ather	-887
ction	-888
ah	-889
▁Four	-890
▁wird	-891
pp	-892
▁ph	-893
▁smiling	-894
af	-895
of	-896
▁bef	-897
phone	-898
ess	-899
▁Y	-900
eer	-901
latz	-902
▁bench	-903
ische	-904
▁Skateboard	-905
hes	-906
itet	-907
▁that	-908
▁Boden	-909
eschä	-910
▁Stadt	-911
ennen	-912
▁Hintergrund	-913
▁vol	-914
▁sing	-915
ob	-916
ald	-917
▁guy	-918
rä	-919
ful	-920
▁baby	-921
ale	-922
▁road	-923
ve	-924
ait	-925
erst	-926
▁pro	-927
▁climb	-928
▁Straßen	-929
▁Haar	-930
▁zusam	-931
se	-932
uple	-933
▁background	-934
ign	-935
umen	-936
▁under	-937
egen	-938
▁Aut	-939
▁hors	-940
▁ihren	-941
▁skateboard	-942
▁Sand	-943
mer	-944
▁go	-945
▁dirt	-946
▁gray	-947
▁mountain	-948
einander	-949
▁Gitarre	-950
eg	-951
auen	-952
▁fahr	-953
▁Motor	-954
▁holds	-955
▁couple	-956
▁stage	-957
▁comp	-958
▁pain	-959
raußen	-960
uss	-961
▁bar	-962
▁Baby	-963
las	-964
aving	-965
▁Pfer	-966
▁tree	-967
▁herum	-968
▁Several	-969
▁zusammen	-970
atch	-971
▁Büh	-972
shirt	-973
ake	-974
▁rosa	-975
ants	-976
ke	-977
▁us	-978
▁fahren	-979
▁draußen	-980
▁Asian	-981
elle	-982
▁race	-983
▁wait	-984
▁taking	-985
stru	-986
▁pool	-987
▁Er	-988
▁abo	-989
▁Foto	-990
▁grau	-991
uth	-992
▁has	-993
▁Gehweg	-994
olz	-995
▁old	-996
▁Bühne	-997
eu	-998
cke	-999
▁ih	-1000
cken	-1001
▁Sonnen	-1002
▁bicycle	-1003
▁glasses	-1004
▁älterer	-1005
bre	-1006
▁rest	-1007
▁jumps	-1008
▁uniform	-1009
io	-1010
ument	-1011
ett	-1012
▁es	-1013
▁bere	-1014
▁Te	-1015
▁doing	-1016
per	-1017
▁sie	-1018
▁carrying	-1019
▁ab	-1020
▁sl	-1021
wach	-1022
▁set	-1023
▁suit	-1024
▁outdo	-1025
▁hinunter	-1026
ost	-1027
▁boat	-1028
▁train	-1029
▁unterh	-1030
ann	-1031
ome	-1032
▁Bau	-1033
ockey	-1034
led	-1035
ley	-1036
▁across	-1037
är	-1038
ater	-1039
wachsen	-1040
edeck	-1041
▁Ch	-1042
▁fem	-1043
▁sun	-1044
ence	-1045
▁Gel	-1046
▁swe	-1047
arten	-1048
wagen	-1049
▁Schwimm	-1050
je	-1051
fit	-1052
▁Ges	-1053
▁day	-1054
▁each	-1055
▁tanz	-1056
▁chair	-1057
och	-1058
kleidung	-1059
eigt	-1060
ping	-1061
▁Holz	-1062
ris	-1063
▁laufen	-1064
▁arbeitet	-1065
erk	-1066
▁him	-1067
▁shop	-1068
▁asiat	-1069
▁seine	-1070
▁Tr	-1071
▁par	-1072
▁sho	-1073
▁Brille	-1074
ßer	-1075
eing	-1076
ikro	-1077
▁dunk	-1078
ha	-1079
here	-1080
▁mus	-1081
ingen	-1082
▁them	-1083
▁motor	-1084
▁mic	-1085
▁Baum	-1086
▁Wand	-1087
▁Mikro	-1088
▁pur	-1089
▁Bank	-1090
▁helm	-1091
▁blickt	-1092
jo	-1093
ok	-1094
▁Paar	-1095
▁face	-1096
▁mouth	-1097
▁andere	-1098
▁store	-1099
▁eating	-1100
strument	-1101
pt	-1102
▁helmet	-1103
▁brauner	-1104
▁micro	-1105
▁swing	-1106
eschäft	-1107
▁weißer	-1108
▁Bild	-1109
▁wind	-1110
▁kletter	-1111
▁Jeans	-1112
ave	-1113
ish	-1114
▁coat	-1115
▁male	-1116
▁lächeln	-1117
▁performing	-1118
iese	-1119
▁toy	-1120
▁Dame	-1121
▁liegt	-1122
▁machen	-1123
ogra	-1124
ührt	-1125
▁band	-1126
▁watching	-1127
iten	-1128
▁Mau	-1129
▁bag	-1130
▁long	-1131
▁Essen	-1132
▁Sk	-1133
▁area	-1134
▁gest	-1135
▁hell	-1136
▁shorts	-1137
▁Wom	-1138
▁flo	-1139
▁middle	-1140
▁arbeiten	-1141
geb	-1142
ool	-1143
▁tow	-1144
▁runs	-1145
ichen	-1146
▁sign	-1147
fr	-1148
▁Men	-1149
enden	-1150
▁dark	-1151
▁seinen	-1152
arkt	-1153
immt	-1154
▁spe	-1155
▁room	-1156
▁Young	-1157
▁befind	-1158
▁ground	-1159
▁Motorrad	-1160
ate	-1161
irm	-1162
uhl	-1163
▁wood	-1164
otogra	-1165
▁using	-1166
▁braunen	-1167
▁lächelt	-1168
az	-1169
▁Hü	-1170
▁Hän	-1171
▁Bür	-1172
▁Rad	-1173
▁Boot	-1174
▁große	-1175
struction	-1176
▁Pf	-1177
zug	-1178
cean	-1179
▁Berg	-1180
▁Wald	-1181
▁gather	-1182
haar	-1183
ired	-1184
▁Mus	-1185
▁enjo	-1186
▁pants	-1187
▁tragen	-1188
▁Un	-1189
tern	-1190
platz	-1191
ischer	-1192
▁being	-1193
▁hands	-1194
als	-1195
dult	-1196
▁Baseball	-1197
▁ob	-1198
▁Meer	-1199
▁horse	-1200
ßt	-1201
ree	-1202
osen	-1203
▁prep	-1204
▁music	-1205
▁swimm	-1206
▁Tennis	-1207
▁reading	-1208
▁de	-1209
▁Klein	-1210
amil	-1211
▁ocean	-1212
▁female	-1213
▁tennis	-1214
▁schauen	-1215
ican	-1216
unst	-1217
aufen	-1218
iving	-1219
▁kids	-1220
brille	-1221
▁jeans	-1222
▁ältere	-1223
▁climbing	-1224
ll	-1225
ple	-1226
▁its	-1227
isten	-1228
▁liest	-1229
▁window	-1230
▁versucht	-1231
bla	-1232
iff	-1233
▁Bürg	-1234
▁ihrem	-1235
▁football	-1236
▁ex	-1237
iele	-1238
▁Pferd	-1239
▁Bürgerst	-1240
▁att	-1241
▁adult	-1242
leep	-1243
▁Bürgersteig	-1244
▁unterhalten	-1245
zt	-1246
ike	-1247
▁junges	-1248
att	-1249
ons	-1250
ance	-1251
▁arm	-1252
▁baseball	-1253
if	-1254
oll	-1255
▁schn	-1256
abei	-1257
▁Fris	-1258
▁Helm	-1259
▁Stein	-1260
▁dabei	-1261
ry	-1262
sche	-1263
▁Tag	-1264
▁dar	-1265
akes	-1266
▁mar	-1267
▁betra	-1268
▁halten	-1269
iet	-1270
▁el	-1271
▁who	-1272
stand	-1273
▁cross	-1274
▁Felsen	-1275
▁motorc	-1276
ffit	-1277
iver	-1278
usch	-1279
▁catch	-1280
▁spricht	-1281
▁sieht	-1282
▁wie	-1283
▁There	-1284
ards	-1285
▁sehen	-1286
tel	-1287
▁Band	-1288
▁bele	-1289
▁past	-1290
▁show	-1291
▁surf	-1292
haired	-1293
▁rides	-1294
▁stick	-1295
▁strip	-1296
▁dancing	-1297
ied	-1298
aper	-1299
▁als	-1300
▁pol	-1301
▁gegen	-1302
▁klettert	-1303
▁fire	-1304
▁Musik	-1305
▁color	-1306
▁zeigt	-1307
▁microphone	-1308
ix	-1309
▁ins	-1310
ement	-1311
▁cover	-1312
▁during	-1313
▁posing	-1314
▁versch	-1315
cher	-1316
▁Gew	-1317
aring	-1318
▁grün	-1319
▁hill	-1320
▁mark	-1321
▁Kunst	-1322
▁orangefarbenen	-1323
arm	-1324
bee	-1325
euer	-1326
derly	-1327
ütze	-1328
▁dis	-1329
ition	-1330
▁purple	-1331
lefon	-1332
▁singt	-1333
▁track	-1334
▁swimming	-1335
▁restaurant	-1336
ät	-1337
▁Kü	-1338
▁Sh	-1339
▁Th	-1340
▁ag	-1341
▁me	-1342
eich	-1343
▁Arm	-1344
▁Auto	-1345
▁flow	-1346
ünf	-1347
▁Rest	-1348
▁clothing	-1349
ostü	-1350
over	-1351
▁Pol	-1352
▁having	-1353
▁players	-1354
▁waiting	-1355
ase	-1356
eld	-1357
ord	-1358
ucks	-1359
▁ent	-1360
liche	-1361
▁posiert	-1362
▁Erwachsen	-1363
auk	-1364
boy	-1365
ubl	-1366
▁kur	-1367
▁drin	-1368
utting	-1369
▁three	-1370
ende	-1371
ikan	-1372
▁bun	-1373
▁zum	-1374
▁look	-1375
▁elderly	-1376
bb	-1377
net	-1378
▁bes	-1379
▁team	-1380
▁Gelän	-1381
▁schie	-1382
rat	-1383
ging	-1384
ines	-1385
▁Auf	-1386
▁bear	-1387
▁beob	-1388
▁drei	-1389
▁part	-1390
▁striped	-1391
▁workers	-1392
▁Spielzeug	-1393
▁basketball	-1394
▁construction	-1395
▁Das	-1396
▁Fen	-1397
▁night	-1398
▁smile	-1399
leyball	-1400
▁rennen	-1401
▁gestrei	-1402
aun	-1403
brel	-1404
▁she	-1405
▁sung	-1406
▁trink	-1407
▁market	-1408
▁umbrel	-1409
▁getting	-1410
▁sunglasses	-1411
sst	-1412
asch	-1413
emand	-1414
ffiti	-1415
owboy	-1416
▁throw	-1417
ycl	-1418
▁can	-1419
ooden	-1420
▁pass	-1421
ial	-1422
ork	-1423
ves	-1424
öff	-1425
▁This	-1426
▁conc	-1427
▁high	-1428
▁wooden	-1429
zer	-1430
uter	-1431
▁One	-1432
▁fore	-1433
▁kick	-1434
▁blauem	-1435
▁watches	-1436
ampf	-1437
▁Spr	-1438
▁again	-1439
▁trick	-1440
▁bright	-1441
▁outfit	-1442
▁Football	-1443
▁Restaurant	-1444
ces	-1445
els	-1446
iss	-1447
▁kn	-1448
dern	-1449
▁met	-1450
▁about	-1451
▁führt	-1452
▁Haaren	-1453
▁seiner	-1454
▁weißem	-1455
atue	-1456
▁Feuer	-1457
▁Wiese	-1458
boarder	-1459
tt	-1460
ien	-1461
▁bow	-1462
▁ihm	-1463
▁open	-1464
arbeiter	-1465
▁against	-1466
▁singing	-1467
▁Basketball	-1468
by	-1469
fl	-1470
aff	-1471
▁pl	-1472
aning	-1473
▁Maul	-1474
▁outdoor	-1475
▁Arbeiter	-1476
ufer	-1477
▁kit	-1478
▁busy	-1479
▁verk	-1480
▁fence	-1481
▁Gesicht	-1482
od	-1483
stum	-1484
▁bot	-1485
▁hang	-1486
▁path	-1487
▁Woman	-1488
▁Mantel	-1489
▁costum	-1490
▁Fenster	-1491
ee	-1492
ht	-1493
ment	-1494
ored	-1495
▁Met	-1496
▁Sur	-1497
▁Weg	-1498
▁wer	-1499
▁gelb	-1500
▁stair	-1501
▁wirft	-1502
▁Frisbee	-1503
ots	-1504
▁bal	-1505
artet	-1506
▁essen	-1507
▁sleep	-1508
▁grauen	-1509
▁colorful	-1510
auer	-1511
▁app	-1512
▁cle	-1513
▁very	-1514
▁Regen	-1515
lo	-1516
braun	-1517
uchen	-1518
▁Hose	-1519
▁Some	-1520
▁ride	-1521
▁sehr	-1522
▁trying	-1523
▁Mikrofon	-1524
▁gekleidete	-1525
▁Sonnenbrille	-1526
raw	-1527
vers	-1528
▁Eis	-1529
▁isst	-1530
▁floor	-1531
ountain	-1532
▁darauf	-1533
▁Kindern	-1534
▁covered	-1535
pr	-1536
urn	-1537
pack	-1538
▁gen	-1539
▁ice	-1540
▁Sport	-1541
▁wartet	-1542
arb	-1543
auft	-1544
▁son	-1545
anzug	-1546
unden	-1547
▁Trep	-1548
▁trees	-1549
▁shirts	-1550
dd	-1551
▁Be	-1552
▁Fre	-1553
▁Rei	-1554
▁cap	-1555
▁body	-1556
▁book	-1557
▁Zusch	-1558
▁truck	-1559
▁making	-1560
ri	-1561
▁cell	-1562
▁inside	-1563
▁laying	-1564
▁kitchen	-1565
▁versamm	-1566
▁posieren	-1567
gest	-1568
kind	-1569
chtet	-1570
▁river	-1571
▁Blumen	-1572
sh	-1573
aft	-1574
omm	-1575
▁big	-1576
örper	-1577
▁Zeit	-1578
becken	-1579
▁metal	-1580
▁compet	-1581
▁grassy	-1582
▁enjoying	-1583
▁schwarzem	-1584
▁motorcycle	-1585
hen	-1586
stück	-1587
▁Haus	-1588
▁gril	-1589
▁Viele	-1590
ullover	-1591
▁blauer	-1592
▁Männern	-1593
▁Bä	-1594
ager	-1595
ient	-1596
▁new	-1597
▁Raum	-1598
▁cart	-1599
▁Child	-1600
▁Fluss	-1601
▁Stuhl	-1602
▁springen	-1603
man	-1604
ject	-1605
▁lad	-1606
▁pie	-1607
ender	-1608
igare	-1609
immer	-1610
schirm	-1611
▁Gegen	-1612
▁Hosen	-1613
▁Poliz	-1614
▁beleb	-1615
▁rotem	-1616
▁instrument	-1617
tte	-1618
▁ev	-1619
asche	-1620
▁Snow	-1621
▁they	-1622
▁clothes	-1623
ium	-1624
▁zur	-1625
itten	-1626
▁Fünf	-1627
▁mach	-1628
▁sell	-1629
▁skat	-1630
▁Hügel	-1631
▁genie	-1632
▁laugh	-1633
ften	-1634
zeit	-1635
▁Wei	-1636
ooking	-1637
▁brick	-1638
▁Schutz	-1639
▁gekleideter	-1640
hä	-1641
ym	-1642
aves	-1643
▁Ver	-1644
▁all	-1645
▁fis	-1646
▁pra	-1647
▁tan	-1648
iegen	-1649
▁cour	-1650
▁Stock	-1651
▁board	-1652
▁Metall	-1653
▁painting	-1654
▁schwarze	-1655
ahl	-1656
▁Her	-1657
▁bed	-1658
▁cre	-1659
▁rep	-1660
▁line	-1661
▁schlä	-1662
▁voller	-1663
▁befindet	-1664
ckt	-1665
▁Ob	-1666
▁bat	-1667
▁wave	-1668
▁Rennen	-1669
▁Shorts	-1670
igarette	-1671
▁schläft	-1672
▁Pullover	-1673
▁bereitet	-1674
▁2	-1675
hnt	-1676
▁fe	-1677
ller	-1678
▁flag	-1679
▁hats	-1680
▁lake	-1681
▁schl	-1682
▁Rucks	-1683
▁alter	-1684
▁weiße	-1685
▁Schild	-1686
▁betrachtet	-1687
▁Bauarbeiter	-1688
ond	-1689
▁Bus	-1690
▁sub	-1691
lichen	-1692
licher	-1693
▁light	-1694
▁takes	-1695
▁tanzen	-1696
▁backpack	-1697
ac	-1698
eid	-1699
▁Br	-1700
scht	-1701
wand	-1702
▁bre	-1703
▁Buch	-1704
▁roter	-1705
▁warten	-1706
▁Bet	-1707
▁Kar	-1708
▁hän	-1709
▁pus	-1710
iegel	-1711
weißer	-1712
▁Anzug	-1713
▁umbrella	-1714
▁zw	-1715
▁Ski	-1716
▁hel	-1717
▁whe	-1718
utter	-1719
▁reitet	-1720
ho	-1721
sk	-1722
iew	-1723
▁so	-1724
hers	-1725
▁art	-1726
▁kar	-1727
▁Five	-1728
▁beard	-1729
▁schne	-1730
▁dunkel	-1731
ib	-1732
ny	-1733
hal	-1734
lam	-1735
pla	-1736
äss	-1737
uhen	-1738
utzt	-1739
▁was	-1740
ellen	-1741
▁Seil	-1742
▁brid	-1743
▁Leuten	-1744
sc	-1745
▁Zug	-1746
▁fest	-1747
▁hard	-1748
▁step	-1749
▁Markt	-1750
▁going	-1751
▁paper	-1752
▁überqu	-1753
fe	-1754
ird	-1755
▁af	-1756
▁em	-1757
▁Gro	-1758
▁Pro	-1759
▁cor	-1760
▁ele	-1761
▁sil	-1762
▁oder	-1763
▁viel	-1764
▁paint	-1765
▁ready	-1766
▁blonde	-1767
▁surround	-1768
rän	-1769
▁Renn	-1770
▁Rück	-1771
▁fall	-1772
▁stud	-1773
körper	-1774
schaft	-1775
▁Welle	-1776
▁snowy	-1777
▁stone	-1778
▁Kleinkind	-1779
▁Radfahrer	-1780
igt	-1781
▁gi	-1782
band	-1783
ette	-1784
ogen	-1785
▁gold	-1786
▁paar	-1787
achtet	-1788
▁langen	-1789
edeckten	-1790
ys	-1791
phon	-1792
▁See	-1793
äufer	-1794
▁Trik	-1795
▁full	-1796
▁Asiat	-1797
▁Bluse	-1798
▁class	-1799
▁cellphone	-1800
▁miteinander	-1801
ellt	-1802
less	-1803
▁Wes	-1804
rücke	-1805
änger	-1806
▁above	-1807
▁herunter	-1808
Bahn	-1809
ecke	-1810
fall	-1811
▁Eink	-1812
▁onto	-1813
▁dance	-1814
▁ihnen	-1815
▁piece	-1816
▁tanzt	-1817
▁Arbeit	-1818
▁others	-1819
ope	-1820
ult	-1821
vel	-1822
ding	-1823
▁box	-1824
aukel	-1825
reibt	-1826
▁Schl	-1827
▁ander	-1828
▁house	-1829
▁crowded	-1830
▁Oberkörper	-1831
ax	-1832
▁„	-1833
ebt	-1834
bahn	-1835
ving	-1836
▁ger	-1837
ersch	-1838
▁Zaun	-1839
▁drum	-1840
altung	-1841
▁zwischen	-1842
ane	-1843
ief	-1844
▁Pap	-1845
▁pad	-1846
▁Land	-1847
▁swim	-1848
ierten	-1849
▁ihrer	-1850
atshirt	-1851
▁Gewäss	-1852
▁bridge	-1853
▁subway	-1854
▁worker	-1855
▁towards	-1856
▁Children	-1857
ail	-1858
ops	-1859
▁ha	-1860
▁Ger	-1861
▁Tra	-1862
▁lot	-1863
▁buck	-1864
▁umge	-1865
▁zieht	-1866
▁schneeb	-1867
br	-1868
ini	-1869
iend	-1870
▁pole	-1871
▁gesch	-1872
▁hanging	-1873
▁outdoors	-1874
▁shopping	-1875
▁En	-1876
aren	-1877
ists	-1878
▁Aus	-1879
▁alt	-1880
▁gle	-1881
ostüm	-1882
▁Schn	-1883
▁pull	-1884
▁rain	-1885
▁Küche	-1886
▁photo	-1887
▁adults	-1888
▁sweater	-1889
▁fountain	-1890
▁sleeping	-1891
▁Schwimmbecken	-1892
ohn	-1893
oon	-1894
üst	-1895
room	-1896
▁ind	-1897
▁leap	-1898
▁many	-1899
▁oben	-1900
▁Beton	-1901
▁Rucksack	-1902
ook	-1903
ämp	-1904
▁Ka	-1905
ents	-1906
▁Gem	-1907
▁kne	-1908
▁öff	-1909
eidet	-1910
▁Many	-1911
▁gear	-1912
▁Famil	-1913
▁beside	-1914
ets	-1915
▁Ro	-1916
▁ad	-1917
ated	-1918
▁Ras	-1919
▁Rol	-1920
▁gym	-1921
▁vom	-1922
▁tank	-1923
▁Bäumen	-1924
▁smiles	-1925
▁stairs	-1926
▁drinking	-1927
▁uniforms	-1928
▁gestreiften	-1929
▁"	-1930
app	-1931
▁Bü	-1932
amen	-1933
▁Get	-1934
▁Mit	-1935
▁does	-1936
▁door	-1937
▁spaz	-1938
▁Handy	-1939
aschine	-1940
▁fishing	-1941
▁schiebt	-1942
▁gathered	-1943
▁beobachtet	-1944
▁surrounded	-1945
co	-1946
uz	-1947
deo	-1948
▁Or	-1949
▁kü	-1950
ungs	-1951
▁Bla	-1952
▁ski	-1953
enager	-1954
▁Mütze	-1955
▁zusch	-1956
▁Treppe	-1957
▁prepare	-1958
▁schwimmt	-1959
▁preparing	-1960
ats	-1961
ime	-1962
uts	-1963
eine	-1964
mann	-1965
▁Afr	-1966
▁Out	-1967
▁gem	-1968
ables	-1969
athon	-1970
chten	-1971
stler	-1972
▁Bade	-1973
▁lang	-1974
▁todd	-1975
gruppe	-1976
▁event	-1977
▁wheel	-1978
▁forest	-1979
▁friend	-1980
▁werden	-1981
▁colored	-1982
▁convers	-1983
▁photogra	-1984
▁verkauft	-1985
▁Kunststück	-1986
▁Um	-1987
asse	-1988
auti	-1989
udes	-1990
Spiel	-1991
▁guys	-1992
▁rope	-1993
▁lehnt	-1994
autiful	-1995
▁Sprung	-1996
me	-1997
feld	-1998
gang	-1999
▁cra	-2000
▁dav	-2001
▁Autos	-2002
▁Schul	-2003
▁pract	-2004
▁mitten	-2005
▁schneidet	-2006
ash	-2007
wes	-2008
▁cr	-2009
▁da	-2010
olin	-2011
eigen	-2012
unnen	-2013
▁chas	-2014
▁kämp	-2015
▁poin	-2016
▁star	-2017
▁view	-2018
▁famil	-2019
haarige	-2020
▁trinkt	-2021
▁machine	-2022
▁selling	-2023
ise	-2024
üll	-2025
ings	-2026
▁pre	-2027
▁tro	-2028
▁Fels	-2029
▁form	-2030
▁make	-2031
▁malt	-2032
▁sonn	-2033
▁teil	-2034
▁hockey	-2035
▁racing	-2036
▁Einkauf	-2037
▁flowers	-2038
itz	-2039
urb	-2040
▁ges	-2041
▁jog	-2042
▁Comp	-2043
▁auss	-2044
▁ramp	-2045
utsche	-2046
▁offic	-2047
▁rocks	-2048
▁Feuerw	-2049
▁Händen	-2050
▁family	-2051
farbener	-2052
▁costume	-2053
▁Geschäft	-2054
▁Gewässer	-2055
▁beautiful	-2056
arn	-2057
fts	-2058
kor	-2059
onz	-2060
uge	-2061
iter	-2062
äudes	-2063
▁vest	-2064
yclist	-2065
▁nimmt	-2066
▁phone	-2067
▁schla	-2068
▁slide	-2069
▁belebten	-2070
des	-2071
fro	-2072
ken	-2073
ric	-2074
▁Ha	-2075
▁Vor	-2076
▁equ	-2077
▁hit	-2078
▁Bahn	-2079
▁Schü	-2080
▁blow	-2081
▁kiss	-2082
▁trail	-2083
▁Brücke	-2084
▁Geträn	-2085
▁object	-2086
▁Familie	-2087
▁toddler	-2088
▁umgeben	-2089
▁spazieren	-2090
off	-2091
sel	-2092
unn	-2093
anst	-2094
erin	-2095
iges	-2096
ommt	-2097
▁Tor	-2098
▁ser	-2099
ittel	-2100
▁arms	-2101
zimmer	-2102
▁hängt	-2103
▁sunny	-2104
▁woods	-2105
▁leaning	-2106
▁putting	-2107
uff	-2108
rüst	-2109
läche	-2110
▁Verk	-2111
▁frei	-2112
▁steps	-2113
otograf	-2114
▁Mutter	-2115
▁Schlag	-2116
▁police	-2117
▁blicken	-2118
▁kämpfen	-2119
sm	-2120
orn	-2121
ugg	-2122
bank	-2123
häut	-2124
ikum	-2125
▁num	-2126
▁lila	-2127
▁rail	-2128
▁take	-2129
▁haben	-2130
rüstung	-2131
ublikum	-2132
▁corner	-2133
▁fliegt	-2134
▁großer	-2135
▁hinauf	-2136
▁lachen	-2137
▁schlägt	-2138
▁sonnigen	-2139
▁throwing	-2140
▁versammelt	-2141
▁schneebedeckten	-2142
ofa	-2143
tem	-2144
änn	-2145
▁Ty	-2146
schw	-2147
▁Pla	-2148
▁com	-2149
▁Flag	-2150
▁Hoch	-2151
▁bird	-2152
▁bott	-2153
▁hebt	-2154
▁männ	-2155
achten	-2156
▁Rasen	-2157
▁Seite	-2158
▁drink	-2159
▁glass	-2160
▁offen	-2161
▁Cowboy	-2162
▁fangen	-2163
▁parade	-2164
▁telefon	-2165
▁Publikum	-2166
▁graffiti	-2167
▁Spielplatz	-2168
▁playground	-2169
ute	-2170
▁ey	-2171
aden	-2172
aten	-2173
▁Par	-2174
▁cam	-2175
▁rau	-2176
ieden	-2177
steig	-2178
ummer	-2179
▁four	-2180
lassen	-2181
▁check	-2182
ünstler	-2183
▁bunten	-2184
▁gerade	-2185
anstaltung	-2186
eep	-2187
ßes	-2188
ives	-2189
▁fil	-2190
▁lin	-2191
ching	-2192
▁stro	-2193
ipment	-2194
▁poses	-2195
▁Rücken	-2196
▁laughing	-2197
▁asiatische	-2198
erb	-2199
out	-2200
ral	-2201
blau	-2202
hair	-2203
lead	-2204
otos	-2205
rete	-2206
▁beg	-2207
▁pat	-2208
▁sky	-2209
attoo	-2210
iting	-2211
ühren	-2212
▁away	-2213
▁vend	-2214
▁court	-2215
ichtung	-2216
▁chairs	-2217
▁jemand	-2218
▁ladies	-2219
▁Schwarz	-2220
olleyball	-2221
▁concrete	-2222
▁Erwachsene	-2223
ace	-2224
arf	-2225
top	-2226
eget	-2227
iker	-2228
▁Kre	-2229
▁padd	-2230
dition	-2231
▁after	-2232
▁balan	-2233
▁fruit	-2234
▁plaid	-2235
▁setting	-2236
▁Gebäudes	-2237
▁computer	-2238
▁equipment	-2239
▁volleyball	-2240
dt	-2241
ül	-2242
ches	-2243
eint	-2244
raut	-2245
raße	-2246
ween	-2247
▁geb	-2248
emden	-2249
▁dock	-2250
▁like	-2251
entlem	-2252
▁party	-2253
▁works	-2254
▁statue	-2255
▁between	-2256
hne	-2257
ids	-2258
ula	-2259
▁Kr	-2260
ängt	-2261
ügen	-2262
▁squ	-2263
ensch	-2264
immel	-2265
ublic	-2266
ühlen	-2267
▁Pool	-2268
▁ange	-2269
▁Kampf	-2270
▁Wagen	-2271
▁asian	-2272
▁couch	-2273
▁inter	-2274
▁Wander	-2275
▁public	-2276
▁winter	-2277
▁African	-2278
▁cooking	-2279
▁Geländer	-2280
▁Teenager	-2281
▁Zuschauer	-2282
▁telefoniert	-2283
tr	-2284
tes	-2285
öpf	-2286
ampe	-2287
lage	-2288
▁Che	-2289
▁Hof	-2290
▁Kan	-2291
▁Mar	-2292
inger	-2293
unnel	-2294
▁dist	-2295
▁pick	-2296
▁pose	-2297
▁tall	-2298
▁yard	-2299
▁Platz	-2300
▁bikes	-2301
▁hohen	-2302
▁veget	-2303
▁Himmel	-2304
▁Jemand	-2305
▁Roller	-2306
▁Surfer	-2307
▁kurzen	-2308
farbenem	-2309
▁cutting	-2310
▁genießt	-2311
▁befinden	-2312
wn	-2313
▁gr	-2314
eten	-2315
ival	-2316
▁aud	-2317
cture	-2318
iding	-2319
stein	-2320
untry	-2321
ycles	-2322
▁Bier	-2323
▁fish	-2324
▁have	-2325
isches	-2326
weißen	-2327
▁Reihe	-2328
▁Shirt	-2329
▁shore	-2330
▁Winter	-2331
▁vielen	-2332
▁Zeitung	-2333
▁rosafarbenen	-2334
ges	-2335
▁ed	-2336
▁gl	-2337
▁lo	-2338
aged	-2339
jekt	-2340
ocks	-2341
▁Bad	-2342
▁leg	-2343
▁pit	-2344
▁smo	-2345
▁wre	-2346
assen	-2347
stuhl	-2348
zogen	-2349
▁rote	-2350
▁Fisch	-2351
▁Stück	-2352
▁Papier	-2353
▁cowboy	-2354
▁displa	-2355
▁nachts	-2356
geschäft	-2357
▁Schutzh	-2358
▁anderer	-2359
▁practic	-2360
▁pushing	-2361
▁someone	-2362
▁Graffiti	-2363
▁Schaukel	-2364
▁pictures	-2365
▁instruments	-2366
▁hü	-2367
ests	-2368
ious	-2369
ters	-2370
▁Sie	-2371
▁ear	-2372
▁hot	-2373
brett	-2374
eller	-2375
ience	-2376
tform	-2377
▁Amer	-2378
▁Dach	-2379
▁alte	-2380
▁cont	-2381
▁guck	-2382
▁land	-2383
▁schm	-2384
▁short	-2385
▁Einige	-2386
▁Hemden	-2387
▁several	-2388
▁verschieden	-2389
▁3	-2390
ems	-2391
ält	-2392
▁Ab	-2393
alen	-2394
ehic	-2395
haus	-2396
stre	-2397
wing	-2398
▁Ind	-2399
▁cup	-2400
jacke	-2401
ugend	-2402
▁Bart	-2403
▁Gemü	-2404
▁Hals	-2405
▁Sold	-2406
▁stop	-2407
▁vier	-2408
▁Leben	-2409
▁cliff	-2410
▁skirt	-2411
▁Freund	-2412
▁Hockey	-2413
▁Trikot	-2414
▁flower	-2415
▁freiem	-2416
▁listen	-2417
▁number	-2418
▁Spieler	-2419
▁dunklen	-2420
▁gentlem	-2421
▁station	-2422
▁verschne	-2423
▁tradition	-2424
▁snowboarder	-2425
bl	-2426
alm	-2427
emp	-2428
hed	-2429
ins	-2430
ven	-2431
▁Cl	-2432
▁Girl	-2433
▁flip	-2434
bedeck	-2435
▁Hände	-2436
▁grill	-2437
▁tritt	-2438
▁vehic	-2439
▁Tasche	-2440
▁einige	-2441
▁grünem	-2442
▁midair	-2443
▁bereiten	-2444
▁Feuerwehr	-2445
▁nebeneinander	-2446
olf	-2447
ser	-2448
ste	-2449
fest	-2450
urch	-2451
▁ihn	-2452
anten	-2453
▁bubb	-2454
▁repar	-2455
brauner	-2456
▁Little	-2457
▁Outfit	-2458
▁Schirm	-2459
▁ü	-2460
▁wr	-2461
ians	-2462
▁apr	-2463
▁gef	-2464
▁hug	-2465
ammer	-2466
ehmen	-2467
ining	-2468
markt	-2469
▁Tanz	-2470
▁Wett	-2471
▁anim	-2472
▁bags	-2473
▁beer	-2474
▁home	-2475
▁mehr	-2476
▁scen	-2477
▁tent	-2478
▁Group	-2479
▁Women	-2480
▁alten	-2481
▁Jugend	-2482
▁benutzt	-2483
entlichen	-2484
▁fotograf	-2485
▁buildings	-2486
▁Snowboarder	-2487
cl	-2488
afe	-2489
änd	-2490
▁Ak	-2491
atte	-2492
ctor	-2493
imer	-2494
keit	-2495
werk	-2496
▁Bar	-2497
▁Tür	-2498
▁ang	-2499
▁Glas	-2500
▁Mund	-2501
▁Obst	-2502
▁Sofa	-2503
▁edge	-2504
▁happ	-2505
▁ries	-2506
▁schö	-2507
rädern	-2508
▁lacht	-2509
▁shoes	-2510
▁Mensch	-2511
▁leaves	-2512
haariger	-2513
▁blondes	-2514
▁driving	-2515
▁Kopfbedeck	-2516
▁Fußballspieler	-2517
chs	-2518
etz	-2519
mel	-2520
set	-2521
ärt	-2522
▁Ol	-2523
▁vi	-2524
port	-2525
tert	-2526
▁dre	-2527
▁fre	-2528
auern	-2529
ersey	-2530
iolet	-2531
▁Dies	-2532
▁Rock	-2533
ehende	-2534
▁Blick	-2535
▁Decke	-2536
▁Grill	-2537
▁Mitte	-2538
▁fängt	-2539
▁reach	-2540
▁vests	-2541
▁Garten	-2542
▁einigen	-2543
▁friends	-2544
▁distance	-2545
▁Instrument	-2546
▁überqueren	-2547
aks	-2548
dem	-2549
ogg	-2550
ron	-2551
ugt	-2552
ädt	-2553
▁Sm	-2554
stic	-2555
▁inf	-2556
eifen	-2557
iking	-2558
▁Skat	-2559
▁Surf	-2560
▁Menge	-2561
▁Schla	-2562
▁Schür	-2563
▁blank	-2564
schwarz	-2565
▁Ziegel	-2566
▁jersey	-2567
▁Lebensm	-2568
▁plastic	-2569
▁crossing	-2570
hü	-2571
ery	-2572
ony	-2573
▁fix	-2574
acken	-2575
elmen	-2576
▁Bett	-2577
▁Pfad	-2578
▁bull	-2579
▁nack	-2580
▁pile	-2581
▁teen	-2582
phones	-2583
rennen	-2584
▁Nacht	-2585
▁Schal	-2586
▁elect	-2587
▁rider	-2588
▁splas	-2589
▁Gemüse	-2590
▁horses	-2591
▁school	-2592
▁Computer	-2593
▁mountains	-2594
▁sweatshirt	-2595
pl	-2596
ps	-2597
ahe	-2598
oph	-2599
ical	-2600
sent	-2601
▁Con	-2602
▁Typ	-2603
▁che	-2604
immen	-2605
▁Part	-2606
▁Ufer	-2607
▁Zelt	-2608
▁both	-2609
▁grei	-2610
▁spre	-2611
aschen	-2612
▁Fotos	-2613
▁Sonne	-2614
▁cream	-2615
▁davon	-2616
ostümen	-2617
▁Geschä	-2618
▁Stufen	-2619
▁attire	-2620
▁flying	-2621
▁großes	-2622
▁treten	-2623
▁concert	-2624
▁Zigarette	-2625
▁Volleyball	-2626
▁beobachten	-2627
▁practicing	-2628
aub	-2629
ned	-2630
ört	-2631
▁ir	-2632
▁sn	-2633
ally	-2634
cord	-2635
hemd	-2636
hund	-2637
itzt	-2638
ogel	-2639
rift	-2640
weiß	-2641
▁ber	-2642
▁cro	-2643
▁glo	-2644
▁ruh	-2645
innen	-2646
▁Stre	-2647
▁cars	-2648
▁rela	-2649
▁time	-2650
fläche	-2651
onzert	-2652
▁match	-2653
▁newsp	-2654
▁reads	-2655
▁surft	-2656
▁Stange	-2657
▁appear	-2658
▁liegen	-2659
▁roller	-2660
▁parking	-2661
▁showing	-2662
▁cigarette	-2663
▁shirtless	-2664
oß	-2665
▁1	-2666
hut	-2667
ram	-2668
sam	-2669
▁qu	-2670
▁ath	-2671
▁cur	-2672
▁mud	-2673
▁net	-2674
ators	-2675
einen	-2676
kampf	-2677
ommen	-2678
▁goal	-2679
▁gymn	-2680
▁nahe	-2681
▁stru	-2682
▁Braut	-2683
▁Rampe	-2684
▁Unter	-2685
▁apron	-2686
▁cheer	-2687
▁kniet	-2688
▁scarf	-2689
▁wrest	-2690
yclists	-2691
▁bereit	-2692
▁gleich	-2693
▁mother	-2694
▁raucht	-2695
▁surfer	-2696
▁vendor	-2697
▁weißes	-2698
▁country	-2699
▁pulling	-2700
▁trinken	-2701
▁cleaning	-2702
▁swinging	-2703
▁Schlagzeug	-2704
▁Tennisball	-2705
▁Zuschauern	-2706
▁Co	-2707
ales	-2708
erne	-2709
pfen	-2710
ugen	-2711
▁Alt	-2712
▁Art	-2713
▁Tau	-2714
▁bel	-2715
▁dig	-2716
▁few	-2717
läger	-2718
sport	-2719
▁Fußg	-2720
▁amer	-2721
▁bowl	-2722
▁left	-2723
▁mart	-2724
▁mitt	-2725
▁roof	-2726
utscht	-2727
▁Mauer	-2728
▁Weihn	-2729
▁lässt	-2730
▁schüt	-2731
▁shoul	-2732
ighting	-2733
▁braune	-2734
▁führen	-2735
▁display	-2736
▁vehicle	-2737
▁American	-2738
▁performs	-2739
▁Skifahrer	-2740
▁structure	-2741
▁betrachten	-2742
▁verschneiten	-2743
bar	-2744
ush	-2745
▁nä	-2746
bild	-2747
lamm	-2748
▁Kap	-2749
▁hil	-2750
eling	-2751
ights	-2752
ormen	-2753
urban	-2754
▁bare	-2755
▁gibt	-2756
▁just	-2757
iental	-2758
▁Vogel	-2759
▁break	-2760
▁swims	-2761
▁waves	-2762
▁farben	-2763
▁giving	-2764
▁tattoo	-2765
▁Kletter	-2766
▁oriental	-2767
▁Snowboard	-2768
▁surfboard	-2769
▁conversation	-2770
▁öffentlichen	-2771
▁Kopfbedeckung	-2772
▁Baseballspieler	-2773
ely	-2774
ved	-2775
▁no	-2776
▁we	-2777
afet	-2778
ause	-2779
eder	-2780
land	-2781
▁Bik	-2782
▁bew	-2783
achts	-2784
uring	-2785
▁Geld	-2786
▁draw	-2787
blauen	-2788
▁Ferne	-2789
▁Trick	-2790
▁Weste	-2791
▁blaue	-2792
▁drums	-2793
▁städt	-2794
▁Mannes	-2795
▁toward	-2796
▁violin	-2797
▁waters	-2798
▁Schürze	-2799
▁carries	-2800
▁jackets	-2801
▁kicking	-2802
▁orangen	-2803
▁Fahrzeug	-2804
▁karierten	-2805
▁Gegenstand	-2806
rt	-2807
agt	-2808
ape	-2809
▁El	-2810
▁wo	-2811
ivid	-2812
üllt	-2813
▁Boy	-2814
▁New	-2815
▁afr	-2816
▁wet	-2817
ading	-2818
allow	-2819
▁Kids	-2820
▁Roll	-2821
▁Tour	-2822
▁arts	-2823
▁dies	-2824
▁empt	-2825
▁meal	-2826
▁unbe	-2827
▁voll	-2828
straße	-2829
▁leaps	-2830
▁attemp	-2831
▁bucket	-2832
amerikan	-2833
▁Handsch	-2834
▁Someone	-2835
▁bathing	-2836
▁martial	-2837
▁painted	-2838
▁smoking	-2839
untergang	-2840
▁Wanderer	-2841
▁audience	-2842
▁prepares	-2843
▁farbenfro	-2844
▁asiatischer	-2845
▁skateboarder	-2846
▁Sonnenuntergang	-2847
nt	-2848
hof	-2849
its	-2850
ott	-2851
uhe	-2852
eibe	-2853
uder	-2854
ußer	-2855
▁med	-2856
▁rol	-2857
iehen	-2858
▁coff	-2859
▁gets	-2860
▁gogg	-2861
▁sold	-2862
erlead	-2863
fahren	-2864
stelle	-2865
▁Damen	-2866
▁alley	-2867
▁außer	-2868
▁biker	-2869
▁bunch	-2870
▁lying	-2871
▁relax	-2872
▁rocky	-2873
ctators	-2874
iformen	-2875
▁Flagge	-2876
▁basket	-2877
▁shovel	-2878
▁railing	-2879
▁Einkaufs	-2880
▁Gehsteig	-2881
▁einander	-2882
ausrüstung	-2883
▁Cheerlead	-2884
▁newspaper	-2885
▁unterhält	-2886
▁vegetables	-2887
amp	-2888
ift	-2889
ous	-2890
spr	-2891
▁pe	-2892
▁pr	-2893
halb	-2894
▁Kaj	-2895
▁fun	-2896
▁geh	-2897
▁gew	-2898
▁kay	-2899
itzen	-2900
änzer	-2901
▁lawn	-2902
▁legt	-2903
▁mask	-2904
▁what	-2905
ession	-2906
▁Armen	-2907
▁Augen	-2908
▁denen	-2909
▁empty	-2910
▁items	-2911
▁sweep	-2912
▁which	-2913
Spieler	-2914
▁coffee	-2915
▁gemein	-2916
▁parked	-2917
▁stellt	-2918
▁violet	-2919
▁Klassen	-2920
▁Rutsche	-2921
▁Uniform	-2922
▁blanket	-2923
▁bowling	-2924
▁chasing	-2925
▁goggles	-2926
▁mittler	-2927
▁Hochzeit	-2928
▁Richtung	-2929
▁costumes	-2930
▁gathering	-2931
▁dunkelhäut	-2932
lee	-2933
▁ko	-2934
apan	-2935
head	-2936
▁fla	-2937
▁mon	-2938
▁tur	-2939
atten	-2940
mauer	-2941
▁bärt	-2942
▁wand	-2943
edding	-2944
▁Diese	-2945
▁Leine	-2946
▁hilft	-2947
▁where	-2948
▁Läufer	-2949
▁Parade	-2950
▁climbs	-2951
▁filled	-2952
▁gelbem	-2953
▁gelber	-2954
▁heraus	-2955
▁hinten	-2956
▁Brunnen	-2957
▁rutscht	-2958
▁surfing	-2959
▁Polizist	-2960
▁fighting	-2961
▁genießen	-2962
▁versuchen	-2963
▁Weihnachts	-2964
▁photograph	-2965
▁competition	-2966
▁Veranstaltung	-2967
hak	-2968
▁Kn	-2969
ippe	-2970
isen	-2971
pher	-2972
▁Bow	-2973
▁Spe	-2974
▁cla	-2975
▁hol	-2976
▁pot	-2977
▁ref	-2978
▁weg	-2979
afety	-2980
▁Back	-2981
▁Schm	-2982
▁dire	-2983
▁weit	-2984
igkeit	-2985
▁flags	-2986
▁overl	-2987
▁before	-2988
▁cement	-2989
▁drinks	-2990
▁durchs	-2991
▁safety	-2992
▁Musiker	-2993
▁blonder	-2994
▁dresses	-2995
▁helmets	-2996
▁streets	-2997
▁platform	-2998
▁classroom	-2999
▁listening	-3000
öl	-3001
int	-3002
irc	-3003
oop	-3004
oth	-3005
ual	-3006
upp	-3007
ages	-3008
cers	-3009
geln	-3010
inkt	-3011
sten	-3012
▁Dre	-3013
▁Ker	-3014
▁lit	-3015
▁mir	-3016
arden	-3017
▁Herr	-3018
▁bath	-3019
▁best	-3020
▁cake	-3021
▁kurz	-3022
▁rais	-3023
▁this	-3024
ugzeug	-3025
▁kommt	-3026
▁Alters	-3027
▁Wellen	-3028
▁greift	-3029
▁ladder	-3030
▁seated	-3031
▁Getränk	-3032
▁Schüler	-3033
▁Wassers	-3034
▁kissing	-3035
▁sliding	-3036
▁wedding	-3037
▁Maschine	-3038
▁zuschaut	-3039
▁Fußgänger	-3040
▁mittleren	-3041
▁Kampfsport	-3042
▁skateboarding	-3043
▁Motorradfahrer	-3044
ia	-3045
grü	-3046
hör	-3047
ume	-3048
▁Kl	-3049
▁Re	-3050
eige	-3051
▁Bre	-3052
cting	-3053
icket	-3054
ister	-3055
oline	-3056
▁disc	-3057
▁hood	-3058
▁huge	-3059
▁jagt	-3060
▁shot	-3061
▁sort	-3062
▁spra	-3063
▁Haare	-3064
▁mirro	-3065
▁rodeo	-3066
▁rotes	-3067
▁talks	-3068
gebäude	-3069
otorrad	-3070
schrift	-3071
▁Indian	-3072
▁Kostüm	-3073
▁Statue	-3074
▁golden	-3075
▁grüner	-3076
▁sports	-3077
▁Bowling	-3078
▁Stühlen	-3079
▁Telefon	-3080
▁balloon	-3081
▁counter	-3082
▁scheint	-3083
▁Kostümen	-3084
▁bicycles	-3085
▁electric	-3086
▁mehreren	-3087
▁pointing	-3088
▁unbefest	-3089
▁außerhalb	-3090
▁gemeinsam	-3091
▁männliche	-3092
▁überquert	-3093
▁versammeln	-3094
▁Lebensmittel	-3095
oe	-3096
Sch	-3097
ips	-3098
urf	-3099
urs	-3100
door	-3101
gend	-3102
park	-3103
▁bek	-3104
▁bem	-3105
▁but	-3106
▁mil	-3107
achen	-3108
anzen	-3109
itary	-3110
▁Rand	-3111
▁Work	-3112
▁York	-3113
▁coll	-3114
▁eyes	-3115
▁gele	-3116
▁rein	-3117
▁uses	-3118
ftball	-3119
▁Eimer	-3120
▁Handt	-3121
▁Laden	-3122
▁skier	-3123
▁Nummer	-3124
▁Westen	-3125
▁nehmen	-3126
▁zurück	-3127
▁blowing	-3128
▁mehrere	-3129
▁staring	-3130
▁Marathon	-3131
▁speaking	-3132
▁students	-3133
▁Geschäfts	-3134
▁gestreift	-3135
▁Polizisten	-3136
▁spectators	-3137
cts	-3138
ele	-3139
ese	-3140
gew	-3141
mas	-3142
orb	-3143
rag	-3144
umm	-3145
▁BM	-3146
bend	-3147
boot	-3148
führ	-3149
köpf	-3150
ural	-3151
▁Kat	-3152
▁gun	-3153
▁var	-3154
asser	-3155
axoph	-3156
boden	-3157
ctive	-3158
iness	-3159
▁Müll	-3160
▁Team	-3161
▁Turn	-3162
▁bald	-3163
▁chef	-3164
▁dass	-3165
▁neck	-3166
▁oper	-3167
▁scul	-3168
arbeit	-3169
▁Badeh	-3170
▁Kajak	-3171
▁Sechs	-3172
▁Vater	-3173
▁beide	-3174
▁guckt	-3175
▁reden	-3176
▁sings	-3177
▁suits	-3178
▁unten	-3179
▁viele	-3180
eyboard	-3181
▁Seifen	-3182
▁allein	-3183
▁mirror	-3184
▁Spiegel	-3185
▁individ	-3186
▁walkway	-3187
▁Geländem	-3188
▁Kleidern	-3189
▁bärtiger	-3190
▁sprechen	-3191
▁Mikrophon	-3192
▁Parkplatz	-3193
▁competing	-3194
aw	-3195
alb	-3196
amb	-3197
ows	-3198
rot	-3199
hand	-3200
ized	-3201
unch	-3202
vert	-3203
▁Mil	-3204
▁cat	-3205
▁opp	-3206
endes	-3207
endet	-3208
halle	-3209
ischt	-3210
▁Trom	-3211
▁barf	-3212
▁clos	-3213
▁desk	-3214
▁gras	-3215
▁mult	-3216
▁sled	-3217
▁verw	-3218
laster	-3219
▁Hüten	-3220
▁Rodeo	-3221
▁bride	-3222
▁close	-3223
▁enjoy	-3224
▁produ	-3225
▁shoot	-3226
▁crouch	-3227
▁garden	-3228
▁leeren	-3229
▁sunset	-3230
▁Konzert	-3231
▁blonden	-3232
▁females	-3233
▁Erwachsener	-3234
▁asiatischen	-3235
▁fotografiert	-3236
kar	-3237
vol	-3238
ates	-3239
entr	-3240
look	-3241
olgt	-3242
stik	-3243
▁Ess	-3244
▁Red	-3245
▁Six	-3246
▁log	-3247
▁tie	-3248
laden	-3249
ooter	-3250
ustom	-3251
äuden	-3252
▁Ende	-3253
▁Pass	-3254
▁lapt	-3255
▁life	-3256
▁tire	-3257
bereit	-3258
ending	-3259
liches	-3260
▁Party	-3261
▁beige	-3262
▁clown	-3263
▁gelbe	-3264
▁lesen	-3265
▁lined	-3266
▁waits	-3267
ehenden	-3268
▁Bergen	-3269
▁Leiter	-3270
▁animal	-3271
▁asleep	-3272
▁bikini	-3273
▁course	-3274
▁grauem	-3275
▁jungen	-3276
▁schauk	-3277
▁screen	-3278
▁werfen	-3279
▁Plastik	-3280
▁ausgest	-3281
▁skating	-3282
▁writing	-3283
▁klettern	-3284
▁Baustelle	-3285
▁Uniformen	-3286
▁gentleman	-3287
▁snowboard	-3288
▁unbefestig	-3289
dr	-3290
ön	-3291
ped	-3292
▁Al	-3293
aske	-3294
fern	-3295
ideo	-3296
lett	-3297
line	-3298
verk	-3299
▁Kir	-3300
▁Lap	-3301
▁Ohr	-3302
▁Rot	-3303
▁Tur	-3304
▁din	-3305
▁row	-3306
iffer	-3307
öcken	-3308
▁Balk	-3309
▁Weiß	-3310
▁Werk	-3311
▁Wohn	-3312
▁talk	-3313
▁weib	-3314
eichen	-3315
▁Waren	-3316
▁boots	-3317
▁entsp	-3318
▁nicht	-3319
▁scene	-3320
▁coming	-3321
▁nearby	-3322
▁schütt	-3323
▁bearded	-3324
▁bubbles	-3325
▁gymnast	-3326
▁zusieht	-3327
bewachsen	-3328
▁Gebäuden	-3329
▁Soldaten	-3330
▁marathon	-3331
▁riesigen	-3332
▁schreibt	-3333
▁schwingt	-3334
▁Badeanzug	-3335
▁Seifenbla	-3336
▁Surfbrett	-3337
▁zuschauen	-3338
▁Regenschirm	-3339
▁Construction	-3340
za	-3341
ary	-3342
ete	-3343
lin	-3344
▁ty	-3345
bike	-3346
yard	-3347
▁Anz	-3348
▁BMX	-3349
▁Bes	-3350
▁Fah	-3351
▁Fle	-3352
▁end	-3353
▁fen	-3354
▁lap	-3355
▁loc	-3356
ocken	-3357
▁Arme	-3358
▁Sohn	-3359
▁circ	-3360
▁exam	-3361
▁feet	-3362
▁garb	-3363
▁hole	-3364
▁pack	-3365
▁prof	-3366
▁site	-3367
▁turn	-3368
indern	-3369
▁place	-3370
▁umarm	-3371
▁Kunden	-3372
▁Tänzer	-3373
▁balanc	-3374
▁onlook	-3375
▁waving	-3376
▁nacktem	-3377
▁streckt	-3378
▁zusehen	-3379
▁Künstler	-3380
▁business	-3381
▁repariert	-3382
▁Schutzhelm	-3383
▁gestreiftem	-3384
▁overlooking	-3385
▁Geländemotorrad	-3386
bs	-3387
mä	-3388
ars	-3389
ily	-3390
▁So	-3391
bers	-3392
kten	-3393
lauf	-3394
lete	-3395
ower	-3396
rich	-3397
road	-3398
unks	-3399
▁cas	-3400
▁gre	-3401
▁mag	-3402
▁pav	-3403
stell	-3404
uppen	-3405
▁Blät	-3406
▁Fall	-3407
▁Korb	-3408
▁Last	-3409
▁deck	-3410
▁ohne	-3411
▁alone	-3412
▁happy	-3413
▁right	-3414
▁sculp	-3415
▁there	-3416
strecke	-3417
▁Schnau	-3418
▁artist	-3419
▁blaues	-3420
▁diving	-3421
▁fallen	-3422
▁fixing	-3423
▁gloves	-3424
▁office	-3425
▁runner	-3426
▁silver	-3427
▁umarmt	-3428
ifferent	-3429
▁Treppen	-3430
▁appears	-3431
▁falling	-3432
▁outfits	-3433
▁project	-3434
▁washing	-3435
▁younger	-3436
weatshirt	-3437
▁Badehose	-3438
▁lächelnd	-3439
▁Fahrrädern	-3440
▁Straßenecke	-3441
▁Straßenrand	-3442
▁grasbewachsen	-3443
öh	-3444
▁Ä	-3445
alf	-3446
eth	-3447
ged	-3448
ics	-3449
uzz	-3450
haki	-3451
otoc	-3452
ptur	-3453
rena	-3454
schn	-3455
ssel	-3456
stän	-3457
▁Bei	-3458
▁gut	-3459
icher	-3460
korde	-3461
öpfen	-3462
▁Büro	-3463
▁Fern	-3464
▁Lauf	-3465
▁Netz	-3466
▁Over	-3467
▁einz	-3468
▁foot	-3469
▁good	-3470
▁seen	-3471
ichtet	-3472
lasche	-3473
ulptur	-3474
▁Gesch	-3475
▁Pause	-3476
▁Stand	-3477
▁dirty	-3478
▁dreht	-3479
▁giant	-3480
▁grüne	-3481
▁skate	-3482
cordion	-3483
▁Kuchen	-3484
▁bedeck	-3485
▁chines	-3486
▁kaufen	-3487
▁skiing	-3488
otocross	-3489
▁Akkorde	-3490
▁discuss	-3491
▁helping	-3492
▁offenen	-3493
▁älteren	-3494
▁Felswand	-3495
▁kneeling	-3496
▁officers	-3497
▁accordion	-3498
▁different	-3499
▁musicians	-3500
▁onlookers	-3501
▁städtischen	-3502
cy	-3503
lü	-3504
dog	-3505
elf	-3506
ife	-3507
key	-3508
nah	-3509
oud	-3510
urg	-3511
uro	-3512
äum	-3513
▁Es	-3514
aler	-3515
annt	-3516
erra	-3517
ffic	-3518
foot	-3519
ickt	-3520
ießt	-3521
iste	-3522
ockt	-3523
orch	-3524
ried	-3525
tend	-3526
tent	-3527
test	-3528
ugby	-3529
▁Pfl	-3530
▁blo	-3531
▁cut	-3532
▁reg	-3533
▁wra	-3534
armen	-3535
irmen	-3536
issen	-3537
ktion	-3538
mütze	-3539
schaf	-3540
weste	-3541
▁Fell	-3542
▁Tier	-3543
▁hört	-3544
▁pier	-3545
▁same	-3546
istmas	-3547
mitten	-3548
olding	-3549
olored	-3550
üllten	-3551
▁Clown	-3552
▁canoe	-3553
▁chain	-3554
▁glück	-3555
▁touch	-3556
brunnen	-3557
führung	-3558
▁Baumst	-3559
▁Bikini	-3560
▁Jacken	-3561
▁Spring	-3562
▁bottle	-3563
▁desert	-3564
▁hiking	-3565
▁lights	-3566
▁starrt	-3567
▁unters	-3568
▁Kopfhör	-3569
▁Pferden	-3570
▁Trikots	-3571
▁Verkehr	-3572
▁officer	-3573
▁scooter	-3574
ikanische	-3575
▁Schreibt	-3576
▁Akkordeon	-3577
▁Sweatshirt	-3578
▁verkleidet	-3579
▁Fußballspiel	-3580
aß	-3581
kl	-3582
äm	-3583
üß	-3584
afé	-3585
ced	-3586
del	-3587
epp	-3588
vor	-3589
wer	-3590
▁wä	-3591
▁yo	-3592
case	-3593
icip	-3594
iers	-3595
oons	-3596
tsch	-3597
▁Dra	-3598
▁ban	-3599
▁eng	-3600
▁mat	-3601
eilen	-3602
uster	-3603
▁Blau	-3604
▁Erde	-3605
▁Kaff	-3606
▁five	-3607
vertis	-3608
▁Angel	-3609
▁Wasch	-3610
▁among	-3611
▁daugh	-3612
▁heads	-3613
▁küsst	-3614
▁leash	-3615
▁obser	-3616
▁putzt	-3617
▁beiden	-3618
▁facing	-3619
▁father	-3620
▁swings	-3621
▁tunnel	-3622
maschine	-3623
▁Schlamm	-3624
▁Taschen	-3625
▁catches	-3626
▁digging	-3627
▁microsc	-3628
▁picking	-3629
▁various	-3630
▁Mountain	-3631
▁advertis	-3632
▁barefoot	-3633
▁beleucht	-3634
▁inmitten	-3635
▁particip	-3636
▁stroller	-3637
▁Schlitten	-3638
▁sculpture	-3639
▁umbrellas	-3640
▁Erwachsenen	-3641
▁Skateboarder	-3642
▁Fahrradfahrer	-3643
▁Klassenzimmer	-3644
▁Tennisspieler	-3645
▁orangefarbener	-3646
▁4	-3647
avy	-3648
bes	-3649
ble	-3650
ipe	-3651
kap	-3652
pft	-3653
rol	-3654
anne	-3655
ides	-3656
obil	-3657
raum	-3658
▁Dog	-3659
▁Ele	-3660
▁Kon	-3661
▁fäl	-3662
▁nap	-3663
▁not	-3664
chair	-3665
eiden	-3666
front	-3667
ichts	-3668
ieder	-3669
uddle	-3670
utzen	-3671
▁Bull	-3672
▁Kanu	-3673
▁Koch	-3674
▁Mitt	-3675
▁Spaß	-3676
▁Tank	-3677
▁Wind	-3678
▁deco	-3679
▁fast	-3680
▁link	-3681
▁meat	-3682
▁tool	-3683
▁toys	-3684
gebiet	-3685
gebung	-3686
reifen	-3687
▁Black	-3688
▁Leder	-3689
▁Schoß	-3690
▁cloud	-3691
▁makes	-3692
▁teach	-3693
▁teams	-3694
▁urban	-3695
▁Chines	-3696
▁church	-3697
▁custom	-3698
▁gelbes	-3699
▁irgend	-3700
▁repair	-3701
▁singen	-3702
▁sticks	-3703
▁trunks	-3704
indernis	-3705
▁Mikrosk	-3706
▁belebte	-3707
▁schmutz	-3708
▁traffic	-3709
▁Schatten	-3710
▁Schnauze	-3711
▁military	-3712
▁sweeping	-3713
▁splashing	-3714
▁verkaufen	-3715
▁Kinderwagen	-3716
▁Rennstrecke	-3717
▁Jugendlicher	-3718
St	-3719
th	-3720
yl	-3721
bra	-3722
hou	-3723
ibb	-3724
que	-3725
alon	-3726
emon	-3727
inis	-3728
itär	-3729
lung	-3730
ritt	-3731
uper	-3732
vice	-3733
▁Hot	-3734
▁Kai	-3735
▁Lab	-3736
▁cow	-3737
▁mix	-3738
gesch	-3739
▁Ecke	-3740
▁Loch	-3741
▁atop	-3742
▁foll	-3743
▁hall	-3744
▁legs	-3745
▁plan	-3746
▁pond	-3747
▁shad	-3748
▁tack	-3749
▁wild	-3750
unette	-3751
westen	-3752
▁Japan	-3753
▁leuch	-3754
▁plate	-3755
▁purse	-3756
▁stuff	-3757
▁tries	-3758
▁wears	-3759
braunen	-3760
▁Gegend	-3761
▁Gerüst	-3762
▁Haufen	-3763
▁Sänger	-3764
▁küssen	-3765
▁upside	-3766
▁zeigen	-3767
▁ziehen	-3768
fahrzeug	-3769
▁Arbeits	-3770
▁Overall	-3771
▁Flugzeug	-3772
▁balloons	-3773
▁relaxing	-3774
▁schaukelt	-3775
▁gekleidetes	-3776
▁hellbrauner	-3777
▁traditional	-3778
▁Schreibtisch	-3779
▁Seifenblasen	-3780
sse	-3781
öhe	-3782
▁Wh	-3783
Fahr	-3784
geht	-3785
iern	-3786
lers	-3787
lesc	-3788
ring	-3789
ätow	-3790
▁Gle	-3791
▁eat	-3792
▁fei	-3793
▁hei	-3794
▁hur	-3795
▁ped	-3796
ierte	-3797
inder	-3798
useum	-3799
▁Toch	-3800
▁cele	-3801
▁jugg	-3802
▁stra	-3803
▁warm	-3804
iefeln	-3805
ration	-3806
▁Krank	-3807
▁Small	-3808
▁Teich	-3809
▁clean	-3810
▁fällt	-3811
▁setzt	-3812
▁trans	-3813
farbene	-3814
telefon	-3815
▁Zimmer	-3816
▁collar	-3817
▁grünes	-3818
▁laptop	-3819
▁reiten	-3820
▁silber	-3821
▁tables	-3822
▁underw	-3823
pflaster	-3824
stellung	-3825
▁Fleisch	-3826
▁doorway	-3827
▁drawing	-3828
▁hugging	-3829
▁present	-3830
▁resting	-3831
▁shallow	-3832
▁Halsband	-3833
▁catching	-3834
▁schlagen	-3835
▁shoulder	-3836
▁Backstein	-3837
▁Hindernis	-3838
▁Lastwagen	-3839
▁Touristen	-3840
▁angezogen	-3841
▁gegenüber	-3842
▁schwimmen	-3843
▁weibliche	-3844
▁balanciert	-3845
▁Handschuhen	-3846
▁performance	-3847
▁pinkfarbenen	-3848
▁Einkaufswagen	-3849
▁gegeneinander	-3850
zä	-3851
▁5	-3852
▁Ü	-3853
bad	-3854
bor	-3855
eng	-3856
geh	-3857
red	-3858
rie	-3859
ube	-3860
▁Gu	-3861
aken	-3862
ares	-3863
atur	-3864
auto	-3865
ffen	-3866
itor	-3867
lymp	-3868
ongl	-3869
pped	-3870
werb	-3871
zaun	-3872
▁Kop	-3873
▁Lad	-3874
▁nat	-3875
▁ras	-3876
▁van	-3877
eding	-3878
führt	-3879
räder	-3880
weiße	-3881
äsche	-3882
▁Café	-3883
▁Höhe	-3884
▁Kraw	-3885
▁bewe	-3886
▁cand	-3887
▁cold	-3888
▁deep	-3889
▁eins	-3890
▁lift	-3891
▁post	-3892
▁pupp	-3893
▁wund	-3894
gelben	-3895
leucht	-3896
lossen	-3897
▁Geige	-3898
▁Tramp	-3899
▁cloth	-3900
▁faces	-3901
▁hüpft	-3902
▁kocht	-3903
▁scaff	-3904
▁shows	-3905
▁signs	-3906
▁stunt	-3907
▁teeth	-3908
▁tramp	-3909
▁trash	-3910
▁video	-3911
anzügen	-3912
bereich	-3913
▁Hunden	-3914
▁Kirche	-3915
▁crying	-3916
▁hammer	-3917
▁Bereich	-3918
▁Feldweg	-3919
▁Freunde	-3920
▁Gelände	-3921
▁Tochter	-3922
▁Workers	-3923
▁dancers	-3924
▁jogging	-3925
▁leather	-3926
▁passing	-3927
▁brightly	-3928
▁daughter	-3929
▁jemandem	-3930
▁schwarzes	-3931
▁Aufschrift	-3932
▁attempting	-3933
▁microscope	-3934
▁profession	-3935
▁verschiedene	-3936
▁unbefestigten	-3937
▁dunkelhäutiger	-3938
gn	-3939
ays	-3940
bat	-3941
bst	-3942
err	-3943
irn	-3944
opp	-3945
äck	-3946
▁Zä	-3947
ders	-3948
hang	-3949
hese	-3950
korb	-3951
ones	-3952
team	-3953
udio	-3954
▁Kla	-3955
▁Nah	-3956
▁Sal	-3957
▁gep	-3958
▁how	-3959
▁sel	-3960
▁sto	-3961
ecken	-3962
fting	-3963
neath	-3964
nival	-3965
ängen	-3966
▁Hang	-3967
▁Hula	-3968
▁Mahl	-3969
▁Pick	-3970
▁Reit	-3971
▁brus	-3972
▁cafe	-3973
▁made	-3974
▁move	-3975
▁rack	-3976
▁stad	-3977
▁wets	-3978
blades	-3979
grünen	-3980
rillen	-3981
▁booth	-3982
▁fight	-3983
▁inspe	-3984
▁khaki	-3985
▁laund	-3986
▁redet	-3987
▁round	-3988
▁stret	-3989
strumen	-3990
▁Meeres	-3991
▁Skater	-3992
▁Steine	-3993
▁hellen	-3994
▁multic	-3995
▁plants	-3996
▁sewing	-3997
▁sleeps	-3998
▁steigt	-3999
▁tricks	-4000
▁leaping	-4001
▁teenage	-4002
▁wetsuit	-4003
▁Parkbank	-4004
▁Sandalen	-4005
▁Schaufen	-4006
▁carnival	-4007
strumenten	-4008
▁Mikroskop	-4009
▁bicyclist	-4010
▁erwachsen	-4011
▁wrestling	-4012
▁Fallschirm	-4013
▁Oberteilen	-4014
▁headphones	-4015
▁underneath	-4016
▁asiatisches	-4017
▁Springbrunnen	-4018
▁grasbewachsenen	-4019
gl	-4020
kw	-4021
adl	-4022
axi	-4023
bec	-4024
ilt	-4025
ino	-4026
nic	-4027
ory	-4028
pro	-4029
prü	-4030
une	-4031
ärm	-4032
▁Fü	-4033
▁Sä	-4034
▁sa	-4035
anda	-4036
ehrt	-4037
eier	-4038
icks	-4039
igem	-4040
oped	-4041
oren	-4042
oten	-4043
stad	-4044
uals	-4045
wich	-4046
ückt	-4047
üten	-4048
▁Chr	-4049
▁Old	-4050
▁jün	-4051
▁pet	-4052
▁rec	-4053
▁vis	-4054
aster	-4055
gehen	-4056
nahme	-4057
orfen	-4058
osten	-4059
▁Eing	-4060
▁Kapu	-4061
▁Tepp	-4062
▁Wüst	-4063
▁holt	-4064
▁hula	-4065
▁roll	-4066
▁shoe	-4067
▁skis	-4068
▁tour	-4069
▁verf	-4070
▁well	-4071
Shirts	-4072
▁Innen	-4073
▁Katze	-4074
▁Mobil	-4075
▁These	-4076
▁beugt	-4077
▁flies	-4078
▁kauft	-4079
▁stack	-4080
▁straw	-4081
▁winkt	-4082
ammlung	-4083
▁Dieser	-4084
▁Laptop	-4085
▁Pferde	-4086
▁chases	-4087
▁grocer	-4088
▁string	-4089
▁tracks	-4090
▁wooded	-4091
▁Chinese	-4092
▁Militär	-4093
▁Tischen	-4094
▁bedient	-4095
▁sandals	-4096
▁stadium	-4097
▁wandert	-4098
▁without	-4099
schwarzer	-4100
▁Krawatte	-4101
▁Schlange	-4102
▁Schlauch	-4103
▁reaching	-4104
▁Trampolin	-4105
▁trampoline	-4106
▁Mobiltelefon	-4107
▁orangefarbenem	-4108
ads	-4109
eiß	-4110
kop	-4111
kre	-4112
pit	-4113
ule	-4114
äst	-4115
afel	-4116
ails	-4117
gern	-4118
hält	-4119
ilfe	-4120
latt	-4121
part	-4122
ught	-4123
unkt	-4124
ußen	-4125
▁bis	-4126
▁bra	-4127
▁brü	-4128
▁mom	-4129
▁sec	-4130
▁tub	-4131
▁way	-4132
enter	-4133
indet	-4134
ivers	-4135
light	-4136
ragen	-4137
▁Nase	-4138
▁Plat	-4139
▁Stro	-4140
▁base	-4141
▁card	-4142
▁fünf	-4143
▁golf	-4144
▁kind	-4145
▁nose	-4146
▁puts	-4147
▁rech	-4148
▁tong	-4149
orting	-4150
reiben	-4151
▁Gitar	-4152
▁Küste	-4153
▁Schuh	-4154
▁Stirn	-4155
▁Stoff	-4156
▁ausge	-4157
▁balls	-4158
▁bauen	-4159
▁davor	-4160
▁gives	-4161
▁hinab	-4162
▁hockt	-4163
▁kayak	-4164
▁lunch	-4165
▁magaz	-4166
▁prote	-4167
▁spray	-4168
▁überf	-4169
adlocks	-4170
▁Fahnen	-4171
▁Klippe	-4172
▁Reifen	-4173
▁Sicher	-4174
▁Skiern	-4175
▁Turner	-4176
▁athlet	-4177
▁geschm	-4178
▁hängen	-4179
▁sprink	-4180
▁telesc	-4181
▁throws	-4182
schläger	-4183
▁Schuhen	-4184
▁braunem	-4185
▁musical	-4186
▁reinigt	-4187
▁umarmen	-4188
▁Freunden	-4189
▁swimsuit	-4190
instrument	-4191
▁performer	-4192
▁schüttelt	-4193
▁wundersch	-4194
▁photographer	-4195
▁Personengruppe	-4196
mm	-4197
▁Q	-4198
atz	-4199
nis	-4200
oks	-4201
usp	-4202
▁Am	-4203
ched	-4204
dach	-4205
enkt	-4206
farb	-4207
hnen	-4208
igur	-4209
oney	-4210
rock	-4211
ssch	-4212
ugel	-4213
ward	-4214
äfer	-4215
▁Ban	-4216
▁Kur	-4217
▁ass	-4218
▁fan	-4219
▁hik	-4220
▁lab	-4221
▁led	-4222
▁pul	-4223
▁ste	-4224
▁tau	-4225
alter	-4226
antel	-4227
etten	-4228
fahrt	-4229
icker	-4230
owing	-4231
plane	-4232
stadt	-4233
ustic	-4234
▁Eish	-4235
▁Golf	-4236
▁Jahr	-4237
▁Rett	-4238
▁even	-4239
▁fels	-4240
▁ganz	-4241
▁goes	-4242
▁hoop	-4243
▁incl	-4244
▁lone	-4245
▁pill	-4246
▁ring	-4247
▁ruht	-4248
▁weld	-4249
▁wine	-4250
▁wire	-4251
bewerb	-4252
kostüm	-4253
omaten	-4254
▁Gasse	-4255
▁Kopft	-4256
▁Kreis	-4257
▁bläst	-4258
▁books	-4259
▁jongl	-4260
▁leans	-4261
▁males	-4262
▁oppos	-4263
▁slope	-4264
eichnet	-4265
▁Essens	-4266
▁Sachen	-4267
▁Schauf	-4268
▁bemalt	-4269
▁closed	-4270
▁dances	-4271
▁dessen	-4272
▁frisch	-4273
▁grauer	-4274
▁grillt	-4275
▁indoor	-4276
▁infant	-4277
▁karate	-4278
▁langem	-4279
▁makeup	-4280
▁moving	-4281
▁pushes	-4282
▁seines	-4283
▁singer	-4284
▁Verkauf	-4285
▁anderes	-4286
▁athlete	-4287
▁bedeckt	-4288
▁bekommt	-4289
▁cyclist	-4290
▁rolling	-4291
▁schießt	-4292
▁Pflanzen	-4293
▁Umgebung	-4294
▁Christmas	-4295
▁lächelnde	-4296
▁telescope	-4297
▁waterfall	-4298
▁conversing	-4299
▁geschlossen	-4300
▁individuals	-4301
▁Schutzhelmen	-4302
▁multicolored	-4303
ko	-4304
▁–	-4305
box	-4306
ean	-4307
ech	-4308
pes	-4309
urt	-4310
wär	-4311
yle	-4312
▁AT	-4313
▁Vi	-4314
dium	-4315
eter	-4316
halt	-4317
nung	-4318
olle	-4319
reit	-4320
ürde	-4321
▁Lkw	-4322
▁Wel	-4323
▁ble	-4324
▁dam	-4325
▁mem	-4326
▁nur	-4327
▁pfl	-4328
▁sea	-4329
▁tag	-4330
agers	-4331
elten	-4332
erina	-4333
icken	-4334
reppe	-4335
räger	-4336
schen	-4337
▁Bach	-4338
▁Nach	-4339
▁aufb	-4340
▁balc	-4341
▁fair	-4342
▁hose	-4343
▁tile	-4344
▁town	-4345
inning	-4346
▁Umzug	-4347
▁Zähne	-4348
▁block	-4349
▁coats	-4350
▁curly	-4351
▁grind	-4352
▁hiker	-4353
▁refle	-4354
▁sandy	-4355
▁steep	-4356
ehender	-4357
ehälter	-4358
reichen	-4359
▁Objekt	-4360
▁blouse	-4361
▁kurzer	-4362
▁marsch	-4363
▁picnic	-4364
▁podium	-4365
▁stream	-4366
arbeiten	-4367
▁Blätter	-4368
▁Tanktop	-4369
▁Teppich	-4370
▁contain	-4371
▁fliegen	-4372
▁opening	-4373
▁schönen	-4374
▁shaking	-4375
▁shaving	-4376
▁Mahlzeit	-4377
▁Schläger	-4378
▁Sportler	-4379
▁Straßenk	-4380
▁brunette	-4381
▁hellhäut	-4382
▁bekleidet	-4383
▁entspannt	-4384
▁violetten	-4385
▁Landschaft	-4386
▁Wasserfall	-4387
▁gepflaster	-4388
▁farbenfrohen	-4389
▁Schwimmbrille	-4390
ki	-4391
mo	-4392
“.	-4393
fte	-4394
äch	-4395
▁US	-4396
Hoop	-4397
ator	-4398
eben	-4399
ends	-4400
händ	-4401
iage	-4402
inen	-4403
iner	-4404
ular	-4405
wegs	-4406
ören	-4407
▁Gep	-4408
▁ans	-4409
▁rub	-4410
ached	-4411
dress	-4412
estri	-4413
place	-4414
wards	-4415
▁Hock	-4416
▁Neop	-4417
▁Vide	-4418
▁farb	-4419
▁fing	-4420
▁gate	-4421
▁lays	-4422
▁nice	-4423
▁susp	-4424
Fahrer	-4425
atting	-4426
uggage	-4427
öffnet	-4428
▁Kreuz	-4429
▁Maske	-4430
▁Pickn	-4431
▁Stroh	-4432
▁Tasse	-4433
▁Wüste	-4434
▁below	-4435
▁birds	-4436
▁colle	-4437
▁heben	-4438
▁ledge	-4439
▁mural	-4440
▁sheep	-4441
richter	-4442
▁Beinen	-4443
▁Gebiet	-4444
▁Helmen	-4445
▁Kaffee	-4446
▁Schlaf	-4447
▁Schuhe	-4448
▁barbec	-4449
▁dinner	-4450
▁inflat	-4451
▁passes	-4452
▁saxoph	-4453
▁taucht	-4454
▁öffnet	-4455
estrians	-4456
köpfiger	-4457
▁Anzügen	-4458
▁Neopren	-4459
▁Strecke	-4460
▁produce	-4461
▁protest	-4462
▁schnell	-4463
▁steigen	-4464
verkäufer	-4465
▁Luftball	-4466
▁Schulter	-4467
▁Sicherhe	-4468
▁Stiefeln	-4469
▁geschäft	-4470
▁geöffnet	-4471
▁paddling	-4472
▁Eishockey	-4473
▁Gegenstän	-4474
▁Hochzeits	-4475
▁ausgestre	-4476
▁customers	-4477
▁jongliert	-4478
▁shoveling	-4479
▁aussehende	-4480
▁wheelchair	-4481
▁überfüllten	-4482
▁Footballspieler	-4483
zu	-4484
“-	-4485
jam	-4486
oes	-4487
reg	-4488
umn	-4489
urr	-4490
woh	-4491
▁Qu	-4492
▁tw	-4493
alls	-4494
anta	-4495
apel	-4496
baum	-4497
icem	-4498
ktor	-4499
last	-4500
work	-4501
▁Box	-4502
▁Erd	-4503
▁Kuh	-4504
▁act	-4505
▁exc	-4506
▁mer	-4507
arage	-4508
baren	-4509
cover	-4510
fully	-4511
gerät	-4512
ienen	-4513
linie	-4514
ondon	-4515
roten	-4516
udert	-4517
▁Fest	-4518
▁alle	-4519
▁bran	-4520
▁cane	-4521
▁cool	-4522
▁fris	-4523
▁fröh	-4524
▁help	-4525
▁says	-4526
▁üben	-4527
ameras	-4528
ichten	-4529
räsent	-4530
selves	-4531
wasser	-4532
▁Berge	-4533
▁Kurve	-4534
▁Olymp	-4535
▁bever	-4536
▁firef	-4537
▁hangs	-4538
▁kicks	-4539
▁local	-4540
▁loung	-4541
▁stark	-4542
▁taken	-4543
▁umher	-4544
▁Balkon	-4545
▁Bilder	-4546
▁Hauses	-4547
▁Karate	-4548
▁Kleine	-4549
▁Tunnel	-4550
▁bottom	-4551
▁buying	-4552
▁center	-4553
▁formal	-4554
▁hurdle	-4555
▁puddle	-4556
▁schlaf	-4557
▁stroll	-4558
▁wäscht	-4559
aufnahme	-4560
▁Stadion	-4561
▁Steinen	-4562
▁balcony	-4563
▁decorat	-4564
▁gezogen	-4565
▁laundry	-4566
▁luggage	-4567
▁married	-4568
▁rasiert	-4569
▁stuffed	-4570
▁Schüssel	-4571
▁marching	-4572
▁railroad	-4573
▁Einkaufst	-4574
▁Schultern	-4575
▁Spielfeld	-4576
▁gentlemen	-4577
▁reparieren	-4578
▁themselves	-4579
▁Instrumente	-4580
▁Schaufenster	-4581
▁beleuchteten	-4582
▁Winterkleidung	-4583
▁Straßenkünstler	-4584
ka	-4585
haw	-4586
irr	-4587
vis	-4588
ähn	-4589
üne	-4590
üte	-4591
▁He	-4592
▁ca	-4593
▁eg	-4594
alle	-4595
gere	-4596
ider	-4597
ieds	-4598
inge	-4599
irat	-4600
renn	-4601
stac	-4602
zäun	-4603
äten	-4604
▁Flü	-4605
▁Guy	-4606
▁don	-4607
▁put	-4608
▁übt	-4609
ckten	-4610
fährt	-4611
hügel	-4612
lagen	-4613
licht	-4614
scape	-4615
▁Bein	-4616
▁Euro	-4617
▁Laub	-4618
▁Teil	-4619
▁Waff	-4620
▁Ziel	-4621
▁afro	-4622
▁bunt	-4623
▁club	-4624
▁farm	-4625
▁film	-4626
▁held	-4627
▁knee	-4628
▁mess	-4629
▁tele	-4630
▁vert	-4631
elling	-4632
▁Außen	-4633
▁Blatt	-4634
▁Couch	-4635
▁Older	-4636
▁chalk	-4637
▁einge	-4638
▁kehrt	-4639
▁links	-4640
▁pulls	-4641
▁stein	-4642
▁stool	-4643
covered	-4644
houette	-4645
rutsche	-4646
▁Asiate	-4647
▁Bücher	-4648
▁London	-4649
▁Orange	-4650
▁Sitzen	-4651
▁befest	-4652
▁device	-4653
▁flight	-4654
▁gucken	-4655
▁hikers	-4656
▁obstac	-4657
▁points	-4658
▁pulled	-4659
▁square	-4660
igkeiten	-4661
richtung	-4662
▁Asiaten	-4663
▁Eingang	-4664
▁Geschen	-4665
▁Projekt	-4666
▁Schäfer	-4667
▁Taucher	-4668
▁Veranda	-4669
▁aufblas	-4670
▁pitcher	-4671
▁policem	-4672
▁pouring	-4673
▁schreit	-4674
▁streich	-4675
▁surface	-4676
▁welding	-4677
▁windows	-4678
▁keyboard	-4679
▁Wettkampf	-4680
▁crosswalk	-4681
▁schneiden	-4682
▁teenagers	-4683
▁verwendet	-4684
iedsrichter	-4685
▁bicyclists	-4686
▁lächelnder	-4687
▁underwater	-4688
▁Cheerleader	-4689
▁gekleideten	-4690
veranstaltung	-4691
▁Instrumenten	-4692
▁lilafarbenen	-4693
▁geschlossenen	-4694
".	-4695
öt	-4696
üs	-4697
cas	-4698
gan	-4699
oga	-4700
▁20	-4701
▁Ge	-4702
▁Im	-4703
▁Mo	-4704
▁Ur	-4705
aked	-4706
bern	-4707
ipes	-4708
itze	-4709
umpf	-4710
zene	-4711
▁Sil	-4712
▁Str	-4713
▁anz	-4714
▁dry	-4715
▁eye	-4716
▁kla	-4717
▁rac	-4718
euert	-4719
hound	-4720
ießen	-4721
ippen	-4722
nette	-4723
onald	-4724
pping	-4725
ützen	-4726
▁Prof	-4727
▁Stud	-4728
▁Tuch	-4729
▁Werb	-4730
▁amüs	-4731
▁bent	-4732
▁dust	-4733
▁hear	-4734
▁lies	-4735
▁raft	-4736
▁robe	-4737
▁type	-4738
erskat	-4739
▁Salto	-4740
▁Terra	-4741
▁White	-4742
▁Zunge	-4743
▁besch	-4744
▁damit	-4745
▁float	-4746
▁geben	-4747
▁guard	-4748
▁kickt	-4749
▁mound	-4750
▁orang	-4751
▁poles	-4752
▁porch	-4753
▁sword	-4754
gitarre	-4755
▁Berges	-4756
▁Bullen	-4757
▁Gepäck	-4758
▁German	-4759
▁Karten	-4760
▁Sieben	-4761
▁Teller	-4762
▁Zement	-4763
▁barfuß	-4764
▁bubble	-4765
▁circle	-4766
▁einzel	-4767
▁hinaus	-4768
▁parach	-4769
▁racket	-4770
▁ringen	-4771
▁schauf	-4772
▁speaks	-4773
▁tongue	-4774
▁vollen	-4775
akeboard	-4776
haariges	-4777
▁Drachen	-4778
▁Fischer	-4779
▁berührt	-4780
▁foreign	-4781
▁gleitet	-4782
▁happily	-4783
▁paddelt	-4784
▁soldier	-4785
▁suspend	-4786
▁Gesichts	-4787
▁Kopftuch	-4788
▁Softball	-4789
▁Terrasse	-4790
▁benutzen	-4791
▁brushing	-4792
▁checking	-4793
▁obstacle	-4794
▁schlafen	-4795
▁shooting	-4796
▁softball	-4797
ikanischen	-4798
▁cheerlead	-4799
▁saxophone	-4800
▁staircase	-4801
▁Lederjacke	-4802
▁inflatable	-4803
▁untersucht	-4804
▁wunderschö	-4805
▁Schäferhund	-4806
▁Sicherheits	-4807
▁beieinander	-4808
▁Neoprenanzug	-4809
▁Rollerblades	-4810
▁pinkfarbenem	-4811
▁gepflasterten	-4812
▁Schiedsrichter	-4813
ex	-4814
gs	-4815
oy	-4816
wa	-4817
ara	-4818
chn	-4819
cut	-4820
eds	-4821
gem	-4822
inn	-4823
iot	-4824
rel	-4825
ton	-4826
tor	-4827
ude	-4828
örm	-4829
▁Mö	-4830
▁pa	-4831
afen	-4832
arbe	-4833
dler	-4834
helm	-4835
iere	-4836
ited	-4837
ners	-4838
rack	-4839
self	-4840
stag	-4841
time	-4842
uden	-4843
ures	-4844
ütte	-4845
▁Kam	-4846
▁Pit	-4847
▁bro	-4848
▁exp	-4849
▁fab	-4850
▁fly	-4851
▁map	-4852
▁wag	-4853
▁wur	-4854
▁ärm	-4855
allen	-4856
annen	-4857
apers	-4858
chter	-4859
doors	-4860
kappe	-4861
rosse	-4862
uters	-4863
viert	-4864
▁City	-4865
▁Groß	-4866
▁Jung	-4867
▁Sees	-4868
▁Wild	-4869
▁Wurf	-4870
▁arch	-4871
▁beam	-4872
▁drag	-4873
▁duck	-4874
▁harn	-4875
▁hind	-4876
▁kahl	-4877
▁komp	-4878
▁lock	-4879
▁pair	-4880
▁palm	-4881
▁peer	-4882
▁port	-4883
entrum	-4884
fallen	-4885
hängen	-4886
leskop	-4887
läufer	-4888
strand	-4889
yhound	-4890
▁Abend	-4891
▁Bäume	-4892
▁Kappe	-4893
▁Lager	-4894
▁Schle	-4895
▁appro	-4896
▁bread	-4897
▁clear	-4898
▁cones	-4899
▁denim	-4900
▁fresh	-4901
▁gießt	-4902
▁groom	-4903
▁shade	-4904
▁sheet	-4905
▁sport	-4906
▁start	-4907
▁third	-4908
brillen	-4909
tertain	-4910
▁Küchen	-4911
▁Reiter	-4912
▁Seiten	-4913
▁Soldat	-4914
▁Vorder	-4915
▁angelt	-4916
▁bringt	-4917
▁dancer	-4918
▁diesem	-4919
▁driver	-4920
▁drives	-4921
▁enjoys	-4922
▁fabric	-4923
▁lassen	-4924
▁nassen	-4925
▁paints	-4926
▁riders	-4927
▁schöne	-4928
▁ärmell	-4929
bereitet	-4930
schaften	-4931
schirmen	-4932
▁Asiatin	-4933
▁Fotogra	-4934
▁Kranken	-4935
▁Polizei	-4936
▁climber	-4937
▁dunkler	-4938
▁evening	-4939
▁frisbee	-4940
▁grocery	-4941
▁harness	-4942
▁himself	-4943
▁tractor	-4944
nerischen	-4945
▁Geschirr	-4946
▁Schaufel	-4947
▁Werkzeug	-4948
▁airplane	-4949
▁felsigen	-4950
▁festival	-4951
▁pavement	-4952
ikanischer	-4953
▁Baumstamm	-4954
▁Cowboyhut	-4955
▁Rollstuhl	-4956
▁Turnhalle	-4957
▁direction	-4958
▁shoulders	-4959
▁unterwegs	-4960
▁verlassen	-4961
▁Waldgebiet	-4962
▁männlicher	-4963
▁marketplace	-4964
▁afroamerikan	-4965
▁advertisement	-4966
▁(	-4967
▁Ö	-4968
gle	-4969
kes	-4970
läs	-4971
pan	-4972
rik	-4973
▁Dr	-4974
▁Mc	-4975
▁Vö	-4976
▁sy	-4977
aker	-4978
cial	-4979
cted	-4980
eile	-4981
glas	-4982
hose	-4983
iano	-4984
izza	-4985
mark	-4986
oben	-4987
udel	-4988
älde	-4989
▁Bal	-4990
▁Kab	-4991
▁Lie	-4992
▁Mon	-4993
▁Pat	-4994
▁Per	-4995
▁Pär	-4996
▁aco	-4997
▁bin	-4998
▁dra	-4999
▁esc	-5000
▁fra	-5001
▁geg	-5002
▁grä	-5003
▁hay	-5004
▁jub	-5005
▁low	-5006
▁ret	-5007
▁see	-5008
asten	-5009
attle	-5010
chern	-5011
chest	-5012
ility	-5013
itter	-5014
rauen	-5015
schuh	-5016
seite	-5017
sicht	-5018
statt	-5019
zeuge	-5020
äcken	-5021
ädern	-5022
ällen	-5023
änder	-5024
▁Base	-5025
▁Blue	-5026
▁Brot	-5027
▁Grim	-5028
▁Here	-5029
▁Mess	-5030
▁Spaz	-5031
▁boun	-5032
▁dune	-5033
▁eats	-5034
▁fert	-5035
▁jean	-5036
▁live	-5037
▁meet	-5038
▁must	-5039
▁muzz	-5040
▁neon	-5041
▁pige	-5042
▁polo	-5043
▁rout	-5044
▁sale	-5045
▁samm	-5046
▁slee	-5047
▁tief	-5048
ashion	-5049
icycle	-5050
iertem	-5051
ierter	-5052
läsern	-5053
männer	-5054
pritzt	-5055
▁Brown	-5056
▁Flugh	-5057
▁Hürde	-5058
▁Jungs	-5059
▁Produ	-5060
▁Rugby	-5061
▁Santa	-5062
▁Seven	-5063
▁Theke	-5064
▁apart	-5065
▁arena	-5066
▁drive	-5067
▁goods	-5068
▁jagen	-5069
▁money	-5070
▁plant	-5071
▁schle	-5072
▁stove	-5073
▁tools	-5074
ighters	-5075
▁Angelr	-5076
▁Becher	-5077
▁Eltern	-5078
▁Farben	-5079
▁Hundes	-5080
▁Jockey	-5081
▁barfüß	-5082
▁fenced	-5083
▁gelegt	-5084
▁goalie	-5085
▁gravel	-5086
▁jungle	-5087
▁kalten	-5088
▁spring	-5089
▁studio	-5090
▁things	-5091
▁Flasche	-5092
▁Gruppen	-5093
▁Pärchen	-5094
▁Spielen	-5095
▁airport	-5096
▁alleine	-5097
▁bending	-5098
▁braunes	-5099
▁garbage	-5100
▁reaches	-5101
▁steilen	-5102
▁wrapped	-5103
schwarzen	-5104
struktion	-5105
▁Keyboard	-5106
▁acoustic	-5107
▁attempts	-5108
▁aussieht	-5109
▁backyard	-5110
▁floating	-5111
▁jemanden	-5112
▁juggling	-5113
▁magazine	-5114
▁overalls	-5115
▁sitzende	-5116
▁verfolgt	-5117
▁Kopfhörer	-5118
▁Schwimmer	-5119
▁backpacks	-5120
▁glücklich	-5121
▁leuchtend	-5122
▁operating	-5123
▁sitzender	-5124
▁vollführt	-5125
▁Ausrüstung	-5126
▁protective	-5127
▁rothaarige	-5128
▁Nahaufnahme	-5129
▁scaffolding	-5130
▁professional	-5131
▁Hockeyspieler	-5132
▁fotografieren	-5133
▁Arbeitskleidung	-5134
enz	-5135
gnü	-5136
kte	-5137
uba	-5138
usk	-5139
▁DJ	-5140
▁Da	-5141
▁Ex	-5142
▁Fr	-5143
▁Ke	-5144
▁Sw	-5145
acks	-5146
anze	-5147
cker	-5148
cour	-5149
eilt	-5150
ewel	-5151
heit	-5152
igam	-5153
ills	-5154
ilot	-5155
ites	-5156
itte	-5157
legt	-5158
luft	-5159
ness	-5160
onne	-5161
pers	-5162
pfer	-5163
raft	-5164
räut	-5165
suit	-5166
vels	-5167
view	-5168
zten	-5169
älle	-5170
öcke	-5171
▁Frü	-5172
▁McD	-5173
▁Mod	-5174
▁Not	-5175
▁Ort	-5176
▁Pal	-5177
▁adj	-5178
▁bur	-5179
▁füt	-5180
▁mas	-5181
▁neu	-5182
▁orn	-5183
▁pin	-5184
▁sen	-5185
▁tar	-5186
▁unt	-5187
▁vac	-5188
▁you	-5189
epark	-5190
gegen	-5191
ively	-5192
jamas	-5193
lasse	-5194
otted	-5195
stoff	-5196
terse	-5197
wärts	-5198
zeigt	-5199
önnen	-5200
▁Aben	-5201
▁Afro	-5202
▁Fire	-5203
▁Gass	-5204
▁Lehr	-5205
▁Ring	-5206
▁Sitz	-5207
▁Vers	-5208
▁Wein	-5209
▁amus	-5210
▁ausz	-5211
▁care	-5212
▁carp	-5213
▁cook	-5214
▁disk	-5215
▁emer	-5216
▁konz	-5217
▁most	-5218
▁pipe	-5219
▁seat	-5220
▁trip	-5221
▁vorn	-5222
astern	-5223
braune	-5224
etrack	-5225
ospiel	-5226
roller	-5227
▁Besen	-5228
▁Bräut	-5229
▁Crowd	-5230
▁Licht	-5231
▁boats	-5232
▁gräbt	-5233
▁heavy	-5234
▁ihres	-5235
▁image	-5236
▁joggt	-5237
▁näher	-5238
▁peace	-5239
▁plaza	-5240
▁selts	-5241
▁super	-5242
▁weint	-5243
berteil	-5244
estelle	-5245
fahrern	-5246
kletter	-5247
udenten	-5248
▁Kissen	-5249
▁Nicker	-5250
▁Schiff	-5251
▁Wäsche	-5252
▁barrel	-5253
▁blocks	-5254
▁caught	-5255
▁cloudy	-5256
▁hoodie	-5257
▁kommen	-5258
▁linken	-5259
▁rechts	-5260
▁Flaggen	-5261
▁Kapuzen	-5262
▁Kleiner	-5263
▁animals	-5264
▁feeding	-5265
▁offenem	-5266
▁serving	-5267
▁student	-5268
▁Getränke	-5269
▁McDonald	-5270
▁Rettungs	-5271
▁athletic	-5272
▁barbecue	-5273
▁bearbeit	-5274
▁brünette	-5275
▁cheering	-5276
▁jumpsuit	-5277
▁konzentr	-5278
▁position	-5279
▁sticking	-5280
▁zeichnet	-5281
▁Bahnsteig	-5282
▁Bräutigam	-5283
▁Fahrräder	-5284
▁Handstand	-5285
▁Jahrmarkt	-5286
▁Kletterer	-5287
▁Motocross	-5288
▁Passanten	-5289
▁backwards	-5290
▁balancing	-5291
▁entertain	-5292
▁examining	-5293
▁landscape	-5294
▁racetrack	-5295
▁Nickerchen	-5296
▁streichelt	-5297
▁Kunststücke	-5298
▁Mountainbike	-5299
▁braunhaarige	-5300
▁geschäftigen	-5301
▁presentation	-5302
▁Weihnachtsbaum	-5303
▁traditioneller	-5304
go	-5305
ama	-5306
bau	-5307
cre	-5308
day	-5309
erc	-5310
hat	-5311
ica	-5312
ktr	-5313
ola	-5314
▁De	-5315
bart	-5316
chte	-5317
ered	-5318
etes	-5319
ippt	-5320
iven	-5321
ooks	-5322
slee	-5323
tery	-5324
uffy	-5325
▁Bat	-5326
▁Bän	-5327
▁Dor	-5328
▁Heu	-5329
▁Oze	-5330
▁Pod	-5331
▁Som	-5332
▁fol	-5333
▁hos	-5334
▁mob	-5335
▁pen	-5336
▁war	-5337
ament	-5338
nteln	-5339
ommun	-5340
pherd	-5341
scher	-5342
tisch	-5343
ustik	-5344
▁Auft	-5345
▁Bord	-5346
▁Chin	-5347
▁Club	-5348
▁Dunk	-5349
▁Gold	-5350
▁Herd	-5351
▁Male	-5352
▁Pier	-5353
▁Zahl	-5354
▁appl	-5355
▁aufs	-5356
▁baut	-5357
▁camo	-5358
▁chop	-5359
▁clay	-5360
▁curb	-5361
▁horn	-5362
▁kann	-5363
▁lots	-5364
▁nied	-5365
▁pump	-5366
▁rast	-5367
▁toss	-5368
▁trop	-5369
▁unge	-5370
gerüst	-5371
mantel	-5372
stufen	-5373
wegung	-5374
äumten	-5375
▁Brand	-5376
▁Dreck	-5377
▁Ferns	-5378
▁Füßen	-5379
▁Gassi	-5380
▁Matte	-5381
▁Sandd	-5382
▁Strom	-5383
▁Tromp	-5384
▁attra	-5385
▁begut	-5386
▁boxes	-5387
▁broom	-5388
▁brush	-5389
▁frame	-5390
▁hören	-5391
▁jewel	-5392
▁moves	-5393
▁muddy	-5394
▁order	-5395
▁piano	-5396
▁pitch	-5397
▁plane	-5398
▁print	-5399
▁robes	-5400
▁ropes	-5401
▁statt	-5402
▁trump	-5403
▁tätow	-5404
▁wagon	-5405
▁wurde	-5406
chester	-5407
chestra	-5408
händler	-5409
laschen	-5410
zentrum	-5411
zäunten	-5412
▁Dieses	-5413
▁Karren	-5414
▁Ketten	-5415
▁Mittag	-5416
▁Saxoph	-5417
▁Street	-5418
▁Träger	-5419
▁action	-5420
▁adjust	-5421
▁bewegt	-5422
▁carpet	-5423
▁colors	-5424
▁fruits	-5425
▁jockey	-5426
▁laughs	-5427
▁living	-5428
▁poster	-5429
▁raised	-5430
▁record	-5431
▁rowing	-5432
▁rudert	-5433
▁runden	-5434
▁skirts	-5435
▁speech	-5436
▁travel	-5437
erstraße	-5438
gestellt	-5439
▁Bahnhof	-5440
▁Gemälde	-5441
▁Mänteln	-5442
▁bucking	-5443
▁celebra	-5444
▁entfern	-5445
▁fashion	-5446
▁fingers	-5447
▁haircut	-5448
▁hallway	-5449
▁hitting	-5450
▁pajamas	-5451
▁runners	-5452
▁sharing	-5453
▁teacher	-5454
▁überprü	-5455
▁Auftritt	-5456
▁Freizeit	-5457
▁Geschenk	-5458
▁Skulptur	-5459
▁Teleskop	-5460
▁american	-5461
▁approach	-5462
▁attached	-5463
▁crouches	-5464
▁grilling	-5465
▁hillside	-5466
▁musician	-5467
▁soldiers	-5468
▁teenager	-5469
▁touching	-5470
bildschirm	-5471
▁courtyard	-5472
▁hinterher	-5473
▁motocross	-5474
▁policeman	-5475
▁sitzenden	-5476
▁trainiert	-5477
▁transport	-5478
▁Trägerhemd	-5479
▁Wohnzimmer	-5480
▁Jugendliche	-5481
▁Motorroller	-5482
▁Afroamerikan	-5483
▁schneebedeck	-5484
▁dunkelhäutige	-5485
▁Menschengruppe	-5486
▁Tennisschläger	-5487
▁Weihnachtsmann	-5488
gy	-5489
▁6	-5490
▁9	-5491
bör	-5492
enk	-5493
fel	-5494
ieß	-5495
ior	-5496
kla	-5497
leg	-5498
lex	-5499
nch	-5500
oly	-5501
ufe	-5502
äus	-5503
öhn	-5504
öte	-5505
▁Kä	-5506
asst	-5507
auch	-5508
belt	-5509
eigh	-5510
gelt	-5511
heel	-5512
hood	-5513
iche	-5514
imon	-5515
ions	-5516
quet	-5517
rill	-5518
schl	-5519
vent	-5520
wett	-5521
üren	-5522
▁ATV	-5523
▁Ast	-5524
▁Lin	-5525
▁Min	-5526
▁Näh	-5527
▁Tab	-5528
▁Ton	-5529
▁arr	-5530
▁cer	-5531
▁fau	-5532
▁fig	-5533
▁ged	-5534
▁mot	-5535
▁zer	-5536
arves	-5537
bogen	-5538
cours	-5539
deckt	-5540
druck	-5541
etter	-5542
ident	-5543
iment	-5544
offer	-5545
rampe	-5546
rates	-5547
robat	-5548
salon	-5549
sperr	-5550
udels	-5551
weise	-5552
weißt	-5553
änden	-5554
▁Anle	-5555
▁Bike	-5556
▁Dorf	-5557
▁Gang	-5558
▁Gumm	-5559
▁Kerl	-5560
▁Kies	-5561
▁Rede	-5562
▁Reif	-5563
▁Stab	-5564
▁Tarn	-5565
▁Warn	-5566
▁Zahn	-5567
▁cone	-5568
▁corn	-5569
▁dish	-5570
▁dump	-5571
▁ears	-5572
▁erkl	-5573
▁kaut	-5574
▁kümm	-5575
▁sail	-5576
▁smok	-5577
anlage	-5578
engers	-5579
ffitis	-5580
heirat	-5581
nitten	-5582
schlag	-5583
stange	-5584
wohner	-5585
▁Feier	-5586
▁Mitgl	-5587
▁Segel	-5588
▁Start	-5589
▁Staub	-5590
▁Stier	-5591
▁angel	-5592
▁demon	-5593
▁folgt	-5594
▁herab	-5595
▁invol	-5596
▁racer	-5597
▁rests	-5598
▁shown	-5599
aterial	-5600
flasche	-5601
zeichen	-5602
▁Ballon	-5603
▁Finger	-5604
▁Hammer	-5605
▁Herbst	-5606
▁Pfütze	-5607
▁Rädern	-5608
▁Stapel	-5609
▁bushes	-5610
▁button	-5611
▁donkey	-5612
▁feiern	-5613
▁headsc	-5614
▁hinein	-5615
▁kochen	-5616
▁modern	-5617
▁setzen	-5618
farbenes	-5619
gestelle	-5620
▁Kleines	-5621
▁Outdoor	-5622
▁Pfosten	-5623
▁Traktor	-5624
▁blondem	-5625
▁indoors	-5626
▁jerseys	-5627
▁members	-5628
▁petting	-5629
▁routine	-5630
automaten	-5631
formation	-5632
▁Japanese	-5633
▁Kapuzenp	-5634
▁Kreuzung	-5635
▁Rennauto	-5636
▁Windhund	-5637
▁bathroom	-5638
▁covering	-5639
▁cyclists	-5640
▁geworfen	-5641
▁practice	-5642
▁sandwich	-5643
▁schießen	-5644
▁Flughafen	-5645
▁Graffitis	-5646
▁Rennwagen	-5647
▁Skatepark	-5648
▁amusement	-5649
▁amüsieren	-5650
▁asiatisch	-5651
▁befestigt	-5652
▁boardwalk	-5653
▁orchestra	-5654
▁verheirat	-5655
▁Bekleidung	-5656
▁Bildschirm	-5657
▁Steinmauer	-5658
▁Wettbewerb	-5659
▁bearbeitet	-5660
▁passengers	-5661
▁Gegenstände	-5662
▁Krankenhaus	-5663
▁Nähmaschine	-5664
▁Vordergrund	-5665
▁schmutzigen	-5666
▁skateboards	-5667
▁Cheerleaders	-5668
▁aufblasbaren	-5669
▁konzentriert	-5670
▁langhaariger	-5671
▁motorcyclist	-5672
▁Fußgängerüber	-5673
▁Sonnenbrillen	-5674
▁verschiedenen	-5675
▁ausgestreckten	-5676
▁Feuerwehrmänner	-5677
12	-5678
kü	-5679
ld	-5680
bem	-5681
ght	-5682
hek	-5683
ibt	-5684
kan	-5685
lät	-5686
lüm	-5687
ora	-5688
umb	-5689
ydr	-5690
äht	-5691
▁iP	-5692
▁mö	-5693
aben	-5694
back	-5695
bung	-5696
flug	-5697
ikes	-5698
ique	-5699
meln	-5700
plat	-5701
pool	-5702
rist	-5703
rows	-5704
ruck	-5705
seit	-5706
ulli	-5707
unde	-5708
utel	-5709
öpfe	-5710
▁Cam	-5711
▁Fil	-5712
▁Mex	-5713
▁acc	-5714
▁adm	-5715
▁far	-5716
▁fin	-5717
▁fur	-5718
▁hüb	-5719
▁lay	-5720
▁pan	-5721
▁res	-5722
▁tug	-5723
▁tut	-5724
▁use	-5725
▁vil	-5726
▁win	-5727
▁zwe	-5728
akers	-5729
arrow	-5730
eiger	-5731
flops	-5732
gerer	-5733
hüter	-5734
iddle	-5735
iesen	-5736
imate	-5737
inden	-5738
inery	-5739
opoly	-5740
oster	-5741
pital	-5742
richt	-5743
wanne	-5744
waren	-5745
▁2012	-5746
▁Cafe	-5747
▁Deck	-5748
▁Fass	-5749
▁High	-5750
▁Lady	-5751
▁abge	-5752
▁bagp	-5753
▁bars	-5754
▁bill	-5755
▁cast	-5756
▁crew	-5757
▁desc	-5758
▁doll	-5759
▁fegt	-5760
▁gall	-5761
▁half	-5762
▁hers	-5763
▁hugs	-5764
▁leaf	-5765
▁nass	-5766
▁poss	-5767
▁ribb	-5768
▁sets	-5769
▁ship	-5770
▁sink	-5771
▁spot	-5772
▁will	-5773
Reifen	-5774
Schild	-5775
itness	-5776
muster	-5777
nchron	-5778
shirts	-5779
studio	-5780
uflage	-5781
vision	-5782
weißem	-5783
▁Brett	-5784
▁Dinge	-5785
▁Eisen	-5786
▁Farbe	-5787
▁Freil	-5788
▁Hafen	-5789
▁Hotel	-5790
▁Labor	-5791
▁Large	-5792
▁Müllt	-5793
▁Typen	-5794
▁begin	-5795
▁bewöl	-5796
▁eleph	-5797
▁exerc	-5798
▁model	-5799
▁patio	-5800
▁paved	-5801
▁point	-5802
▁rough	-5803
▁rugby	-5804
▁scuba	-5805
▁seems	-5806
▁smoke	-5807
▁towel	-5808
▁wobei	-5809
artigen	-5810
gewicht	-5811
richtet	-5812
schuhen	-5813
stühlen	-5814
utschen	-5815
▁Frisbe	-5816
▁Gewehr	-5817
▁Schule	-5818
▁cleans	-5819
▁dining	-5820
▁dishes	-5821
▁diskut	-5822
▁garage	-5823
▁helfen	-5824
▁intent	-5825
▁kneels	-5826
▁lehnen	-5827
▁mixing	-5828
▁museum	-5829
▁neckla	-5830
▁pieces	-5831
▁rubber	-5832
▁runter	-5833
▁stares	-5834
▁stones	-5835
▁teilen	-5836
▁thrown	-5837
aschinen	-5838
▁Bushalt	-5839
▁Schnurr	-5840
▁bandann	-5841
▁bringen	-5842
▁carving	-5843
▁compete	-5844
▁excited	-5845
▁flausch	-5846
▁gelehnt	-5847
▁herself	-5848
▁spritzt	-5849
▁stopped	-5850
▁trumpet	-5851
▁turning	-5852
leuchtung	-5853
▁Behälter	-5854
▁Fotograf	-5855
▁Handtuch	-5856
▁Mädchens	-5857
▁Sanddüne	-5858
▁beschäft	-5859
▁beverage	-5860
▁carriage	-5861
▁entfernt	-5862
▁grinding	-5863
▁hospital	-5864
▁planscht	-5865
▁schweißt	-5866
▁spinning	-5867
mannschaft	-5868
▁Angelrute	-5869
▁Picknickt	-5870
▁Studenten	-5871
▁einzelner	-5872
▁handstand	-5873
▁machinery	-5874
▁Handtasche	-5875
▁Kopfhörern	-5876
▁Mannschaft	-5877
▁Rucksäcken	-5878
▁Sandstrand	-5879
▁camouflage	-5880
▁discussion	-5881
▁foreground	-5882
▁hellblauen	-5883
▁individual	-5884
▁rollerskat	-5885
▁Motorrädern	-5886
▁Stadtstraße	-5887
▁aussehender	-5888
▁hellbraunen	-5889
▁motorcycles	-5890
▁pedestrians	-5891
▁photographs	-5892
▁Schutzbrille	-5893
▁chinesischen	-5894
▁snowboarding	-5895
▁Klettergerüst	-5896
▁Regenschirmen	-5897
▁amerikanische	-5898
▁wunderschönen	-5899
▁Bushaltestelle	-5900
ls	-5901
sä	-5902
aal	-5903
any	-5904
een	-5905
hlt	-5906
iam	-5907
ims	-5908
ipp	-5909
kon	-5910
lem	-5911
los	-5912
par	-5913
prä	-5914
rab	-5915
ues	-5916
xas	-5917
▁It	-5918
ames	-5919
aust	-5920
aved	-5921
biss	-5922
cade	-5923
coat	-5924
down	-5925
ernt	-5926
girl	-5927
hren	-5928
ible	-5929
iple	-5930
satz	-5931
zern	-5932
▁Jog	-5933
▁Kür	-5934
▁Mat	-5935
▁Plü	-5936
▁She	-5937
▁aqu	-5938
▁aut	-5939
▁buy	-5940
▁def	-5941
▁dro	-5942
▁erh	-5943
▁exh	-5944
▁fet	-5945
▁gaz	-5946
▁hum	-5947
▁höl	-5948
▁nah	-5949
▁pee	-5950
▁pop	-5951
▁sim	-5952
▁sol	-5953
▁tin	-5954
▁try	-5955
arter	-5956
asium	-5957
auber	-5958
eback	-5959
ehren	-5960
griff	-5961
hilfe	-5962
iften	-5963
iring	-5964
kugel	-5965
lässt	-5966
order	-5967
orgen	-5968
ption	-5969
raten	-5970
truck	-5971
uting	-5972
▁Fing	-5973
▁Gelb	-5974
▁Heiß	-5975
▁Klav	-5976
▁Löff	-5977
▁Mark	-5978
▁Show	-5979
▁Topf	-5980
▁Walm	-5981
▁auch	-5982
▁aufz	-5983
▁calm	-5984
▁chew	-5985
▁cong	-5986
▁cons	-5987
▁dead	-5988
▁enth	-5989
▁entr	-5990
▁fill	-5991
▁kite	-5992
▁liqu	-5993
▁länd	-5994
▁mall	-5995
▁only	-5996
▁pine	-5997
▁pony	-5998
▁prob	-5999
▁rink	-6000
▁tube	-6001
▁wide	-6002
▁Über	-6003
alator	-6004
dessen	-6005
ighter	-6006
imming	-6007
itteln	-6008
kinder	-6009
rocken	-6010
vollen	-6011
▁Balls	-6012
▁Blume	-6013
▁Brust	-6014
▁China	-6015
▁Gerät	-6016
▁Girls	-6017
▁Hütte	-6018
▁Moped	-6019
▁Namen	-6020
▁Rauch	-6021
▁Ruder	-6022
▁Schub	-6023
▁Stamm	-6024
▁candy	-6025
▁coach	-6026
▁finis	-6027
▁helps	-6028
▁japan	-6029
▁neigh	-6030
▁newly	-6031
▁paras	-6032
▁parkt	-6033
▁polka	-6034
▁puppy	-6035
▁rainy	-6036
▁rollt	-6037
▁seats	-6038
▁tight	-6039
▁tower	-6040
▁walls	-6041
Gitarre	-6042
borhood	-6043
schafts	-6044
▁Balken	-6045
▁Bauern	-6046
▁Bänken	-6047
▁Dudels	-6048
▁Fläche	-6049
▁Konfer	-6050
▁Körper	-6051
▁Passag	-6052
▁Plakat	-6053
▁Tattoo	-6054
▁bewund	-6055
▁design	-6056
▁findet	-6057
▁geblüm	-6058
▁joggen	-6059
▁native	-6060
▁protes	-6061
▁slides	-6062
▁smokes	-6063
▁summer	-6064
▁weiter	-6065
periment	-6066
▁Ballons	-6067
▁Geldbör	-6068
▁Outfits	-6069
▁Schacht	-6070
▁Trommel	-6071
▁Violine	-6072
▁Werbung	-6073
▁african	-6074
▁benches	-6075
▁cricket	-6076
▁füttert	-6077
▁interse	-6078
▁lachend	-6079
▁leaving	-6080
▁mustach	-6081
▁outstre	-6082
▁richtet	-6083
▁scenery	-6084
▁schwach	-6085
▁vorüber	-6086
▁wandern	-6087
▁wrestle	-6088
▁älteres	-6089
▁Brandung	-6090
▁Freiluft	-6091
▁Maulkorb	-6092
▁Saxophon	-6093
▁Trompete	-6094
▁bandanna	-6095
▁indische	-6096
▁matching	-6097
▁scheinen	-6098
▁schwenkt	-6099
▁Getränken	-6100
▁Hinterhof	-6101
▁Reifensch	-6102
▁Wasserski	-6103
▁escalator	-6104
▁geschmink	-6105
▁greyhound	-6106
▁gymnasium	-6107
▁horseback	-6108
▁kariertem	-6109
▁suspended	-6110
▁Dreadlocks	-6111
▁Jeansjacke	-6112
▁Schwimmbad	-6113
▁Wettrennen	-6114
▁erwachsene	-6115
▁lächelndes	-6116
▁stretching	-6117
▁Fußballfeld	-6118
▁beschäftigt	-6119
▁Fahrgeschäft	-6120
▁hellhäutiger	-6121
▁intersection	-6122
▁Straßenhändler	-6123
KW	-6124
hem	-6125
how	-6126
neh	-6127
omb	-6128
osa	-6129
usi	-6130
wai	-6131
ürk	-6132
▁At	-6133
▁Ne	-6134
▁ru	-6135
▁Är	-6136
avig	-6137
bert	-6138
empt	-6139
ench	-6140
epar	-6141
iege	-6142
irth	-6143
klam	-6144
ktur	-6145
okal	-6146
ontä	-6147
oriz	-6148
schr	-6149
ured	-6150
waff	-6151
ways	-6152
weis	-6153
wood	-6154
ürzt	-6155
▁Kör	-6156
▁LKW	-6157
▁Squ	-6158
▁Süß	-6159
▁cab	-6160
▁cal	-6161
▁cop	-6162
▁dim	-6163
▁job	-6164
▁let	-6165
▁stö	-6166
▁tun	-6167
▁ört	-6168
ambur	-6169
armon	-6170
aucas	-6171
brary	-6172
ctory	-6173
eicht	-6174
essen	-6175
gency	-6176
house	-6177
ierst	-6178
inned	-6179
jects	-6180
kette	-6181
ktive	-6182
oodle	-6183
orter	-6184
osaur	-6185
prung	-6186
präch	-6187
stern	-6188
uding	-6189
usses	-6190
yloph	-6191
ämmer	-6192
▁Auss	-6193
▁Bill	-6194
▁Elef	-6195
▁Floß	-6196
▁Food	-6197
▁Grün	-6198
▁Häus	-6199
▁Kalb	-6200
▁Kart	-6201
▁Läch	-6202
▁Robe	-6203
▁Teig	-6204
▁Vort	-6205
▁bene	-6206
▁calf	-6207
▁ceil	-6208
▁cuts	-6209
▁expl	-6210
▁fans	-6211
▁gebe	-6212
▁halb	-6213
▁hits	-6214
▁insp	-6215
▁iron	-6216
▁item	-6217
▁keep	-6218
▁kopf	-6219
▁lane	-6220
▁näht	-6221
▁sofa	-6222
▁span	-6223
▁taxi	-6224
▁türk	-6225
ailing	-6226
brücke	-6227
haufen	-6228
herman	-6229
ickelt	-6230
schild	-6231
sprung	-6232
ycling	-6233
ändern	-6234
ängern	-6235
▁Arena	-6236
▁Blond	-6237
▁Demon	-6238
▁Fahrt	-6239
▁Kamel	-6240
▁Pfadf	-6241
▁Rollt	-6242
▁Tätow	-6243
▁beißt	-6244
▁birth	-6245
▁brows	-6246
▁bunte	-6247
▁camel	-6248
▁celeb	-6249
▁chest	-6250
▁derby	-6251
▁doors	-6252
▁glatz	-6253
▁great	-6254
▁hoops	-6255
▁klats	-6256
▁lines	-6257
▁merch	-6258
▁naked	-6259
▁patch	-6260
▁recei	-6261
▁share	-6262
▁terra	-6263
ference	-6264
haltung	-6265
köpfige	-6266
▁Baumes	-6267
▁Bergst	-6268
▁Comput	-6269
▁Herren	-6270
▁Middle	-6271
▁Spitze	-6272
▁Tauben	-6273
▁Tricks	-6274
▁Welpen	-6275
▁bikers	-6276
▁boxing	-6277
▁branch	-6278
▁faulen	-6279
▁heißen	-6280
▁hotdog	-6281
▁mittel	-6282
▁narrow	-6283
▁nähert	-6284
▁papers	-6285
▁raises	-6286
▁sleeve	-6287
▁treibt	-6288
alloween	-6289
erschied	-6290
escheibe	-6291
haarigen	-6292
luftball	-6293
schaukel	-6294
springen	-6295
▁Ballett	-6296
▁Händler	-6297
▁Klavier	-6298
▁Lächeln	-6299
▁Walmart	-6300
▁Zeichen	-6301
▁baskets	-6302
▁bottles	-6303
▁buckets	-6304
▁ceiling	-6305
▁fencing	-6306
▁gezeigt	-6307
▁jewelry	-6308
▁library	-6309
▁loading	-6310
▁pigeons	-6311
▁raising	-6312
▁redhead	-6313
▁riesige	-6314
▁swimmer	-6315
▁Gespräch	-6316
▁Plastikt	-6317
▁Schubkar	-6318
▁Strohhut	-6319
▁Tätowier	-6320
▁balances	-6321
▁coloring	-6322
▁entrance	-6323
▁gehalten	-6324
▁goldenen	-6325
▁headband	-6326
▁intently	-6327
▁opposite	-6328
▁reinigen	-6329
▁sporting	-6330
▁tattooed	-6331
▁tourists	-6332
bekleidung	-6333
landschaft	-6334
▁Badewanne	-6335
▁Elefanten	-6336
▁Kunstwerk	-6337
▁Mountainb	-6338
▁Orchester	-6339
▁Radrennen	-6340
▁Surfboard	-6341
▁ballerina	-6342
▁bedeckten	-6343
▁checkered	-6344
▁computers	-6345
▁interview	-6346
▁irgendein	-6347
▁motorbike	-6348
▁nighttime	-6349
▁schaufelt	-6350
▁squatting	-6351
▁steinigen	-6352
▁überprüft	-6353
instrumente	-6354
▁Abendessen	-6355
▁Fotografen	-6356
▁Rolltreppe	-6357
▁Silhouette	-6358
▁conference	-6359
▁storefront	-6360
▁trainieren	-6361
▁zusammenge	-6362
konstruktion	-6363
▁Luftballons	-6364
▁Schlafanzug	-6365
▁Zeitschrift	-6366
▁Ziegelmauer	-6367
▁participate	-6368
▁unterschied	-6369
▁untersuchen	-6370
▁vorbeigehen	-6371
▁Anlegestelle	-6372
▁Heißluftball	-6373
▁Kapuzenpulli	-6374
▁afrikanische	-6375
▁farbenfroher	-6376
▁neighborhood	-6377
▁rosafarbenem	-6378
▁Feuerwehrmann	-6379
▁Picknicktisch	-6380
▁participating	-6381
▁Frisbeescheibe	-6382
▁Zuschauermenge	-6383
▁Snowboardfahrer	-6384
hl	-6385
pa	-6386
ux	-6387
▁-	-6388
ato	-6389
aul	-6390
bag	-6391
bel	-6392
bus	-6393
hol	-6394
hrt	-6395
ibl	-6396
krä	-6397
mod	-6398
mus	-6399
oir	-6400
rop	-6401
saw	-6402
uum	-6403
wel	-6404
wor	-6405
ymn	-6406
öst	-6407
üff	-6408
ünd	-6409
▁Di	-6410
▁Kö	-6411
▁Lö	-6412
▁Ma	-6413
▁Sn	-6414
▁ic	-6415
Hemd	-6416
agel	-6417
anad	-6418
anke	-6419
aped	-6420
buch	-6421
club	-6422
corn	-6423
eckt	-6424
eife	-6425
foto	-6426
gers	-6427
hawk	-6428
hnic	-6429
ilet	-6430
ilts	-6431
isle	-6432
onen	-6433
pren	-6434
säge	-6435
town	-6436
▁Amp	-6437
▁Ble	-6438
▁Dis	-6439
▁Inl	-6440
▁Leg	-6441
▁Pin	-6442
▁Tal	-6443
▁Tim	-6444
▁Wer	-6445
▁ant	-6446
▁bad	-6447
▁fro	-6448
▁gas	-6449
▁mov	-6450
▁odd	-6451
▁rod	-6452
▁rug	-6453
▁six	-6454
▁sup	-6455
abrik	-6456
aiten	-6457
alken	-6458
alung	-6459
ammen	-6460
bends	-6461
dustr	-6462
erous	-6463
hosen	-6464
izing	-6465
leute	-6466
maske	-6467
merks	-6468
ohemd	-6469
oking	-6470
ooten	-6471
otter	-6472
trick	-6473
urity	-6474
▁Bass	-6475
▁Bibl	-6476
▁Esel	-6477
▁Gymn	-6478
▁Kürb	-6479
▁Mult	-6480
▁Oper	-6481
▁Quad	-6482
▁boul	-6483
▁bund	-6484
▁caps	-6485
▁come	-6486
▁fold	-6487
▁free	-6488
▁gown	-6489
▁guns	-6490
▁load	-6491
▁main	-6492
▁scre	-6493
▁tags	-6494
▁thin	-6495
▁verz	-6496
▁webt	-6497
▁wife	-6498
athers	-6499
geregt	-6500
ically	-6501
inings	-6502
iothek	-6503
iziert	-6504
reiche	-6505
seitig	-6506
ussell	-6507
▁Figur	-6508
▁Hilfe	-6509
▁Kegel	-6510
▁Rande	-6511
▁Teams	-6512
▁Texas	-6513
▁Trans	-6514
▁Trink	-6515
▁aisle	-6516
▁binoc	-6517
▁blows	-6518
▁bowls	-6519
▁carry	-6520
▁chase	-6521
▁condu	-6522
▁embra	-6523
▁fancy	-6524
▁funny	-6525
▁grand	-6526
▁heart	-6527
▁lange	-6528
▁moped	-6529
▁organ	-6530
▁silly	-6531
▁spoon	-6532
Station	-6533
agessen	-6534
aurants	-6535
blading	-6536
geboren	-6537
ichtern	-6538
iergang	-6539
ineskat	-6540
itorium	-6541
izieren	-6542
skinned	-6543
sleeved	-6544
sschild	-6545
tending	-6546
urtstag	-6547
▁Becken	-6548
▁Fahrer	-6549
▁Gewand	-6550
▁Koffer	-6551
▁Kreide	-6552
▁Lehrer	-6553
▁Lippen	-6554
▁Löffel	-6555
▁Messer	-6556
▁Modell	-6557
▁Podium	-6558
▁Ringer	-6559
▁Röcken	-6560
▁Saiten	-6561
▁Square	-6562
▁abends	-6563
▁banner	-6564
▁batter	-6565
▁biking	-6566
▁casual	-6567
▁column	-6568
▁crafts	-6569
▁doctor	-6570
▁feiert	-6571
▁fertig	-6572
▁figure	-6573
▁fluffy	-6574
▁hölzer	-6575
▁mobile	-6576
▁moment	-6577
▁nieder	-6578
▁ornate	-6579
▁paddle	-6580
▁photos	-6581
▁skates	-6582
▁vacuum	-6583
▁wischt	-6584
aucasian	-6585
bemalung	-6586
farbigen	-6587
streifen	-6588
ämmerung	-6589
▁Absperr	-6590
▁Akustik	-6591
▁Büschen	-6592
▁Fingern	-6593
▁Gymnast	-6594
▁Kricket	-6595
▁Orangen	-6596
▁Pitcher	-6597
▁Schmuck	-6598
▁Waldweg	-6599
▁attempt	-6600
▁balance	-6601
▁beneath	-6602
▁bewegen	-6603
▁closeup	-6604
▁control	-6605
▁demonst	-6606
▁drummer	-6607
▁folding	-6608
▁guitars	-6609
▁medical	-6610
▁peering	-6611
▁pottery	-6612
▁repairs	-6613
▁stellen	-6614
▁trailer	-6615
▁treffen	-6616
▁viewing	-6617
▁village	-6618
▁weaving	-6619
▁Schirmen	-6620
▁Wandbild	-6621
▁befahren	-6622
▁bekommen	-6623
▁birthday	-6624
▁browsing	-6625
▁darunter	-6626
▁electron	-6627
▁entgegen	-6628
▁farbigen	-6629
▁hindurch	-6630
▁leuchten	-6631
▁mustache	-6632
▁opposing	-6633
▁starting	-6634
▁teaching	-6635
itarbeiter	-6636
▁Dudelsack	-6637
▁Gitarrist	-6638
▁Operation	-6639
▁Plattform	-6640
▁Schneesch	-6641
▁Verkäufer	-6642
▁bewölkten	-6643
▁billboard	-6644
▁cardboard	-6645
▁container	-6646
▁firetruck	-6647
▁following	-6648
▁headscarf	-6649
▁sprinkler	-6650
▁vegetable	-6651
▁violettem	-6652
räsentation	-6653
▁Asiatinnen	-6654
▁Bibliothek	-6655
▁Geburtstag	-6656
▁Inlineskat	-6657
▁Kunststoff	-6658
▁Schubkarre	-6659
▁dreadlocks	-6660
▁inspecting	-6661
▁städtische	-6662
▁television	-6663
▁Bauarbeiten	-6664
▁Klassenraum	-6665
▁Mittagessen	-6666
▁Schnurrbart	-6667
▁Süßigkeiten	-6668
▁advertising	-6669
▁begutachtet	-6670
▁diskutieren	-6671
▁gegenseitig	-6672
▁marschieren	-6673
▁Bowlingkugel	-6674
▁cheerleaders	-6675
▁firefighters	-6676
▁kahlköpfiger	-6677
▁Baseballkappe	-6678
▁Baseballmütze	-6679
▁Baseballspiel	-6680
▁dunkelhaarige	-6681
▁verheiratetes	-6682
▁Reifenschaukel	-6683
▁Rettungswesten	-6684
▁Einkaufszentrum	-6685
ma	-6686
▁&	-6687
▁8	-6688
axo	-6689
bow	-6690
com	-6691
dre	-6692
eur	-6693
ika	-6694
ker	-6695
loy	-6696
min	-6697
nes	-6698
ney	-6699
pre	-6700
ses	-6701
tag	-6702
tre	-6703
tty	-6704
utt	-6705
äuf	-6706
▁10	-6707
▁Do	-6708
▁Fe	-6709
▁Pl	-6710
▁Pr	-6711
▁lö	-6712
anas	-6713
ativ	-6714
aube	-6715
boat	-6716
burg	-6717
deck	-6718
eddy	-6719
fett	-6720
hill	-6721
hlen	-6722
isto	-6723
like	-6724
obby	-6725
outs	-6726
stem	-6727
tens	-6728
ulen	-6729
uses	-6730
voll	-6731
wurf	-6732
ühle	-6733
ürst	-6734
▁App	-6735
▁Ath	-6736
▁Beg	-6737
▁Car	-6738
▁Har	-6739
▁Küh	-6740
▁Lac	-6741
▁Med	-6742
▁Mom	-6743
▁Web	-6744
▁add	-6745
▁deb	-6746
▁del	-6747
▁dep	-6748
▁jet	-6749
▁lan	-6750
▁los	-6751
▁mod	-6752
▁prü	-6753
▁trü	-6754
▁Öff	-6755
ampen	-6756
appen	-6757
aumen	-6758
benen	-6759
ckter	-6760
ehend	-6761
enken	-6762
essel	-6763
essor	-6764
horts	-6765
ilden	-6766
ipfel	-6767
ither	-6768
itors	-6769
iture	-6770
kreuz	-6771
lings	-6772
loser	-6773
läser	-6774
onder	-6775
opter	-6776
sters	-6777
style	-6778
tched	-6779
ulars	-6780
urses	-6781
zeich	-6782
▁Boys	-6783
▁Bret	-6784
▁Fans	-6785
▁Flip	-6786
▁Flur	-6787
▁John	-6788
▁Knei	-6789
▁Lang	-6790
▁Saxo	-6791
▁Taxi	-6792
▁Teen	-6793
▁Vord	-6794
▁acht	-6795
▁bass	-6796
▁baum	-6797
▁bean	-6798
▁chee	-6799
▁cras	-6800
▁dusk	-6801
▁feat	-6802
▁frem	-6803
▁furn	-6804
▁hamm	-6805
▁iPod	-6806
▁knit	-6807
▁neue	-6808
▁ober	-6809
▁oven	-6810
▁push	-6811
▁remo	-6812
▁rust	-6813
▁sack	-6814
▁seem	-6815
▁soap	-6816
▁trol	-6817
▁wein	-6818
esting	-6819
etafel	-6820
ipping	-6821
istole	-6822
kommen	-6823
laufen	-6824
ooters	-6825
schein	-6826
werfer	-6827
wäsche	-6828
▁Einem	-6829
▁Elekt	-6830
▁Flüss	-6831
▁Hawai	-6832
▁Hocke	-6833
▁Karte	-6834
▁Klapp	-6835
▁Natur	-6836
▁Noten	-6837
▁Piste	-6838
▁Pudel	-6839
▁Staff	-6840
▁Stift	-6841
▁Stufe	-6842
▁Super	-6843
▁Tafel	-6844
▁Vögel	-6845
▁chefs	-6846
▁choir	-6847
▁craft	-6848
▁dimly	-6849
▁engen	-6850
▁exhib	-6851
▁füllt	-6852
▁leckt	-6853
▁lernt	-6854
▁malen	-6855
▁navig	-6856
▁oppon	-6857
▁pizza	-6858
▁pumpk	-6859
▁races	-6860
▁sells	-6861
▁speed	-6862
▁stock	-6863
▁sucht	-6864
▁teamm	-6865
▁youth	-6866
entlich	-6867
merksam	-6868
richten	-6869
station	-6870
▁Bühnen	-6871
▁Daumen	-6872
▁Hotdog	-6873
▁Junger	-6874
▁Kerzen	-6875
▁Köpfen	-6876
▁Labork	-6877
▁Laufen	-6878
▁Locken	-6879
▁Museum	-6880
▁Schafe	-6881
▁Tanzen	-6882
▁Wänden	-6883
▁altmod	-6884
▁barber	-6885
▁bricks	-6886
▁broken	-6887
▁divers	-6888
▁either	-6889
▁elektr	-6890
▁finish	-6891
▁gepark	-6892
▁graben	-6893
▁histor	-6894
▁indian	-6895
▁instru	-6896
▁können	-6897
▁maroon	-6898
▁mostly	-6899
▁pillow	-6900
▁refere	-6901
▁shakes	-6902
▁social	-6903
▁steckt	-6904
▁sweeps	-6905
▁wading	-6906
▁wheels	-6907
amburger	-6908
gebunden	-6909
▁Fernseh	-6910
▁Kleider	-6911
▁Saxofon	-6912
▁Schmutz	-6913
▁Schwert	-6914
▁Speisen	-6915
▁Stangen	-6916
▁Station	-6917
▁Vortrag	-6918
▁beladen	-6919
▁candles	-6920
▁congreg	-6921
▁crosses	-6922
▁daneben	-6923
▁drinnen	-6924
▁enthusi	-6925
▁factory	-6926
▁follows	-6927
▁geparkt	-6928
▁grillen	-6929
▁leading	-6930
▁lifting	-6931
▁nachdem	-6932
▁objects	-6933
▁patient	-6934
▁praying	-6935
▁ruhigen	-6936
▁shadows	-6937
▁shovels	-6938
▁spieler	-6939
▁spotted	-6940
▁starren	-6941
chterbahn	-6942
▁Blättern	-6943
▁Fernglas	-6944
▁Turnerin	-6945
▁einsamer	-6946
▁elephant	-6947
▁erleucht	-6948
▁festhält	-6949
▁komplett	-6950
▁kopfüber	-6951
▁material	-6952
▁monument	-6953
▁schieben	-6954
▁schnitzt	-6955
▁scooters	-6956
▁security	-6957
▁spraying	-6958
▁stairway	-6959
▁streicht	-6960
▁swimmers	-6961
▁synchron	-6962
▁training	-6963
▁verlässt	-6964
▁visiting	-6965
▁wheelbar	-6966
volleyball	-6967
▁Ballerina	-6968
▁Betonwand	-6969
▁Bordstein	-6970
▁Geldbörse	-6971
▁Gewässers	-6972
▁Wakeboard	-6973
▁apartment	-6974
▁crouching	-6975
▁decorated	-6976
▁geblümten	-6977
▁gesäumten	-6978
▁hölzernen	-6979
▁observing	-6980
▁silbernen	-6981
▁stehenden	-6982
▁uniformed	-6983
▁Marktplatz	-6984
▁Pfadfinder	-6985
▁Videospiel	-6986
▁Zahlreiche	-6987
▁binoculars	-6988
▁discussing	-6989
▁entspannen	-6990
▁marschiert	-6991
▁protesting	-6992
▁ärmellosen	-6993
▁Beleuchtung	-6994
▁Bowlingbahn	-6995
▁Flüssigkeit	-6996
▁celebrating	-6997
▁entlanggeht	-6998
▁langhaarige	-6999
▁rothaariges	-7000
▁surrounding	-7001
▁verkleidete	-7002
▁vorbeifährt	-7003
▁Schlagzeuger	-7004
▁outstretched	-7005
▁Mountainbiker	-7006
▁Spielkleidung	-7007
▁Sportkleidung	-7008
▁orangefarbene	-7009
▁Afroamerikaner	-7010
▁Akustikgitarre	-7011
▁Basketballspiel	-7012
cc	-7013
hy	-7014
kr	-7015
ou	-7016
äb	-7017
act	-7018
akd	-7019
ana	-7020
dan	-7021
ded	-7022
emb	-7023
emi	-7024
flü	-7025
ict	-7026
ios	-7027
kul	-7028
lig	-7029
lim	-7030
org	-7031
ubs	-7032
udd	-7033
uen	-7034
urm	-7035
zte	-7036
▁Is	-7037
▁On	-7038
▁Rö	-7039
▁To	-7040
▁ak	-7041
▁aw	-7042
▁ju	-7043
▁Äl	-7044
Mann	-7045
arin	-7046
born	-7047
ello	-7048
emen	-7049
erby	-7050
erry	-7051
estr	-7052
fter	-7053
förm	-7054
heim	-7055
hten	-7056
ibly	-7057
igar	-7058
irst	-7059
muck	-7060
ocal	-7061
ogie	-7062
olen	-7063
oned	-7064
opes	-7065
pfad	-7066
pids	-7067
raht	-7068
reek	-7069
rest	-7070
roll	-7071
rosa	-7072
tops	-7073
ttet	-7074
unds	-7075
very	-7076
vors	-7077
wöhn	-7078
▁Anh	-7079
▁For	-7080
▁Geg	-7081
▁Gür	-7082
▁Iro	-7083
▁Neu	-7084
▁Pad	-7085
▁Pel	-7086
▁Soc	-7087
▁Sub	-7088
▁Tee	-7089
▁dad	-7090
▁dir	-7091
▁emp	-7092
▁fle	-7093
▁got	-7094
▁kre	-7095
▁lac	-7096
▁may	-7097
▁min	-7098
▁mop	-7099
▁saw	-7100
▁scr	-7101
▁tas	-7102
▁tee	-7103
▁tho	-7104
▁val	-7105
ackel	-7106
aming	-7107
ative	-7108
block	-7109
ctors	-7110
dozer	-7111
emony	-7112
ernen	-7113
fetti	-7114
feuer	-7115
gnügt	-7116
ially	-7117
ichte	-7118
karte	-7119
küche	-7120
omach	-7121
oping	-7122
racht	-7123
teams	-7124
unken	-7125
utfit	-7126
wheel	-7127
ündel	-7128
▁Arzt	-7129
▁Bear	-7130
▁Chor	-7131
▁Elmo	-7132
▁Farb	-7133
▁Flug	-7134
▁Füße	-7135
▁Home	-7136
▁Horn	-7137
▁Pink	-7138
▁Play	-7139
▁Säug	-7140
▁Yoga	-7141
▁aber	-7142
▁amid	-7143
▁bege	-7144
▁belt	-7145
▁berg	-7146
▁bron	-7147
▁burg	-7148
▁char	-7149
▁cobb	-7150
▁eggs	-7151
▁flam	-7152
▁lear	-7153
▁loom	-7154
▁masc	-7155
▁mass	-7156
▁navy	-7157
▁proc	-7158
▁puck	-7159
▁rost	-7160
▁song	-7161
▁trom	-7162
▁verl	-7163
▁yoga	-7164
alling	-7165
beutel	-7166
hockey	-7167
icking	-7168
ienten	-7169
ittsch	-7170
leiter	-7171
menade	-7172
orning	-7173
▁Asien	-7174
▁Bogen	-7175
▁Boots	-7176
▁Colle	-7177
▁Fried	-7178
▁Gehen	-7179
▁Kette	-7180
▁Köche	-7181
▁Ohren	-7182
▁Times	-7183
▁Türen	-7184
▁Welpe	-7185
▁Wette	-7186
▁anhat	-7187
▁apple	-7188
▁bevor	-7189
▁brenn	-7190
▁chess	-7191
▁crane	-7192
▁creek	-7193
▁dekor	-7194
▁dicht	-7195
▁dribb	-7196
▁enter	-7197
▁glove	-7198
▁heels	-7199
▁hotel	-7200
▁leads	-7201
▁messy	-7202
▁niedr	-7203
▁packt	-7204
▁press	-7205
▁quick	-7206
▁rural	-7207
▁sechs	-7208
▁shops	-7209
▁sniff	-7210
▁socks	-7211
▁steel	-7212
▁still	-7213
▁style	-7214
▁teiln	-7215
▁tents	-7216
▁trunk	-7217
▁turns	-7218
▁world	-7219
▁Älter	-7220
akdance	-7221
artment	-7222
brocken	-7223
fenster	-7224
senting	-7225
▁Batman	-7226
▁Europe	-7227
▁Fabrik	-7228
▁Kisten	-7229
▁Kürbis	-7230
▁Palmen	-7231
▁Redner	-7232
▁Reklam	-7233
▁Schach	-7234
▁Socken	-7235
▁Sommer	-7236
▁Spiels	-7237
▁Stehen	-7238
▁Stühle	-7239
▁ballet	-7240
▁bunter	-7241
▁butter	-7242
▁commun	-7243
▁debris	-7244
▁finger	-7245
▁floral	-7246
▁groups	-7247
▁headed	-7248
▁jubelt	-7249
▁kayaks	-7250
▁plates	-7251
▁pretty	-7252
▁rapids	-7253
▁ribbon	-7254
▁schrei	-7255
▁skiers	-7256
▁target	-7257
▁wendet	-7258
enschwes	-7259
gelassen	-7260
geworfen	-7261
skulptur	-7262
▁Bahngle	-7263
▁Papiere	-7264
▁Protest	-7265
▁Student	-7266
▁Tourist	-7267
▁beginnt	-7268
▁chicken	-7269
▁coaster	-7270
▁constru	-7271
▁engaged	-7272
▁fireman	-7273
▁flachen	-7274
▁gebeugt	-7275
▁greifen	-7276
▁kümmert	-7277
▁lecture	-7278
▁paddles	-7279
▁präsent	-7280
▁rauchen	-7281
▁rechten	-7282
▁sailing	-7283
▁sammelt	-7284
▁schlamm	-7285
▁schlend	-7286
▁theater	-7287
▁tourist	-7288
▁trolley	-7289
▁weather	-7290
▁wheelie	-7291
▁wirbelt	-7292
▁Flaschen	-7293
▁Monopoly	-7294
▁Sandwich	-7295
▁Students	-7296
▁Verkaufs	-7297
▁bagpipes	-7298
▁bemalten	-7299
▁ceremony	-7300
▁chainsaw	-7301
▁chatting	-7302
▁downtown	-7303
▁eingesch	-7304
▁flowered	-7305
▁inspects	-7306
▁interess	-7307
▁involved	-7308
▁lacrosse	-7309
▁learning	-7310
▁lounging	-7311
▁machines	-7312
▁necklace	-7313
▁offenbar	-7314
▁opponent	-7315
▁planting	-7316
▁possibly	-7317
▁scaffold	-7318
▁splashes	-7319
▁ungewöhn	-7320
▁vergnügt	-7321
▁Grimassen	-7322
▁Halloween	-7323
▁Handschuh	-7324
▁Konferenz	-7325
▁Stirnband	-7326
▁Trainings	-7327
▁Werkstatt	-7328
▁attending	-7329
▁aufgeregt	-7330
▁bewundert	-7331
▁fisherman	-7332
▁formation	-7333
▁furniture	-7334
▁gewickelt	-7335
▁guitarist	-7336
▁including	-7337
▁motorized	-7338
▁photograp	-7339
▁schreiben	-7340
▁örtlichen	-7341
▁Achterbahn	-7342
▁Asiatische	-7343
▁Aufführung	-7344
▁Breakdance	-7345
▁Geschäften	-7346
▁Innenstadt	-7347
▁Kettensäge	-7348
▁Schlittsch	-7349
▁Sportwagen	-7350
▁Straßenmus	-7351
▁Untergrund	-7352
▁Waschsalon	-7353
▁auditorium	-7354
▁aufmerksam	-7355
▁directions	-7356
▁gymnastics	-7357
▁performers	-7358
▁reflective	-7359
▁sleeveless	-7360
▁waterfront	-7361
▁zubereitet	-7362
▁Sprungbrett	-7363
▁Versammlung	-7364
▁Wasserspren	-7365
▁approaching	-7366
▁countryside	-7367
▁firefighter	-7368
▁flauschiger	-7369
▁microphones	-7370
▁wheelbarrow	-7371
▁übergewicht	-7372
▁Schwimmweste	-7373
▁dunkelblauen	-7374
▁gegnerischen	-7375
▁Krankenschwes	-7376
▁Wasserrutsche	-7377
▁afrikanischer	-7378
▁glatzköpfiger	-7379
▁rollerblading	-7380
▁Tennisspielerin	-7381
."	-7382
Te	-7383
ky	-7384
mt	-7385
nä	-7386
üd	-7387
▁'	-7388
▁.	-7389
abe	-7390
abl	-7391
ari	-7392
ata	-7393
can	-7394
ebe	-7395
edo	-7396
eim	-7397
gra	-7398
gro	-7399
ham	-7400
kör	-7401
lit	-7402
mal	-7403
met	-7404
oma	-7405
rid	-7406
wen	-7407
wir	-7408
▁Fä	-7409
▁Zw	-7410
▁ax	-7411
▁di	-7412
▁id	-7413
▁op	-7414
Amer	-7415
abel	-7416
ader	-7417
alte	-7418
aris	-7419
arth	-7420
asen	-7421
ehör	-7422
elte	-7423
enga	-7424
etze	-7425
gery	-7426
gung	-7427
iami	-7428
ices	-7429
ilar	-7430
ital	-7431
ität	-7432
izin	-7433
jung	-7434
kopf	-7435
lest	-7436
lück	-7437
onge	-7438
pfel	-7439
rier	-7440
sitz	-7441
teln	-7442
toff	-7443
uckt	-7444
ware	-7445
yram	-7446
zelt	-7447
äste	-7448
äule	-7449
▁Bag	-7450
▁Hab	-7451
▁Top	-7452
▁USA	-7453
▁Uhr	-7454
▁bas	-7455
▁daz	-7456
▁dec	-7457
▁dom	-7458
▁dün	-7459
▁ext	-7460
▁foc	-7461
▁hut	-7462
▁kau	-7463
▁mug	-7464
▁mög	-7465
▁own	-7466
▁rad	-7467
▁rei	-7468
▁sad	-7469
▁tom	-7470
▁tux	-7471
▁ung	-7472
▁uns	-7473
▁wad	-7474
▁zug	-7475
amboo	-7476
ambus	-7477
arium	-7478
auten	-7479
decke	-7480
eight	-7481
enger	-7482
ently	-7483
hakis	-7484
ising	-7485
jeans	-7486
kante	-7487
kunst	-7488
lauch	-7489
olate	-7490
phalt	-7491
recht	-7492
rückt	-7493
ucker	-7494
uffet	-7495
ummel	-7496
ürste	-7497
üssel	-7498
▁Army	-7499
▁Blas	-7500
▁Chef	-7501
▁Hüte	-7502
▁Jeep	-7503
▁Lass	-7504
▁Lied	-7505
▁Port	-7506
▁Sack	-7507
▁Soon	-7508
▁Span	-7509
▁Sprü	-7510
▁Wach	-7511
▁Wart	-7512
▁also	-7513
▁been	-7514
▁beis	-7515
▁biet	-7516
▁bite	-7517
▁cann	-7518
▁craw	-7519
▁cute	-7520
▁fake	-7521
▁flat	-7522
▁gefl	-7523
▁gesp	-7524
▁gift	-7525
▁give	-7526
▁goat	-7527
▁groß	-7528
▁hike	-7529
▁lauf	-7530
▁leot	-7531
▁logs	-7532
▁name	-7533
▁nets	-7534
▁noch	-7535
▁näch	-7536
▁poor	-7537
▁rice	-7538
▁rund	-7539
▁rück	-7540
▁serv	-7541
▁skin	-7542
▁tied	-7543
▁tiny	-7544
▁tops	-7545
▁tray	-7546
▁trot	-7547
▁upon	-7548
▁weap	-7549
Kostüm	-7550
acting	-7551
ameram	-7552
andise	-7553
bersch	-7554
blauem	-7555
bungen	-7556
einbar	-7557
ellten	-7558
errier	-7559
hammer	-7560
iertes	-7561
ischem	-7562
isting	-7563
kasten	-7564
legten	-7565
leitet	-7566
nehmer	-7567
ontäne	-7568
orange	-7569
pieler	-7570
stehen	-7571
sticks	-7572
terned	-7573
tspiel	-7574
wimmen	-7575
üchern	-7576
üffelt	-7577
▁Babys	-7578
▁Bauch	-7579
▁Beach	-7580
▁Biker	-7581
▁Bälle	-7582
▁Durch	-7583
▁Fahne	-7584
▁Jenga	-7585
▁Kaffe	-7586
▁Kasse	-7587
▁Kiste	-7588
▁Köpfe	-7589
▁Maler	-7590
▁Nagel	-7591
▁Ozean	-7592
▁Pilot	-7593
▁Stahl	-7594
▁Stunt	-7595
▁Urein	-7596
▁altes	-7597
▁angem	-7598
▁blood	-7599
▁bückt	-7600
▁cards	-7601
▁cello	-7602
▁colla	-7603
▁comes	-7604
▁diver	-7605
▁dough	-7606
▁gefle	-7607
▁graue	-7608
▁juice	-7609
▁knees	-7610
▁knife	-7611
▁movie	-7612
▁ricks	-7613
▁rings	-7614
▁salon	-7615
▁snack	-7616
▁staub	-7617
▁sweat	-7618
▁tires	-7619
▁unord	-7620
▁watet	-7621
▁wires	-7622
icopter	-7623
ierende	-7624
ollegen	-7625
schmuck	-7626
schnitt	-7627
spielen	-7628
ständer	-7629
uniform	-7630
▁Aufzug	-7631
▁Bambus	-7632
▁Decken	-7633
▁Einrad	-7634
▁Eiscre	-7635
▁Gegner	-7636
▁Hocker	-7637
▁Imbiss	-7638
▁Inline	-7639
▁Irokes	-7640
▁Kapuze	-7641
▁Karton	-7642
▁Klasse	-7643
▁Mittel	-7644
▁Mützen	-7645
▁Police	-7646
▁Poster	-7647
▁Schaum	-7648
▁Soccer	-7649
▁Sports	-7650
▁Umhang	-7651
▁Zöpfen	-7652
▁arcade	-7653
▁assemb	-7654
▁attent	-7655
▁aufgeb	-7656
▁bamboo	-7657
▁bewald	-7658
▁brauen	-7659
▁called	-7660
▁castle	-7661
▁cheese	-7662
▁covers	-7663
▁direkt	-7664
▁ethnic	-7665
▁hooded	-7666
▁huddle	-7667
▁kauert	-7668
▁landet	-7669
▁leicht	-7670
▁liquid	-7671
▁lounge	-7672
▁motion	-7673
▁nasser	-7674
▁sauber	-7675
▁schwer	-7676
▁serves	-7677
▁snowsh	-7678
▁suchen	-7679
▁tripod	-7680
▁türkis	-7681
▁valley	-7682
flugzeug	-7683
förmigen	-7684
geländer	-7685
issensch	-7686
▁Bearded	-7687
▁Einsatz	-7688
▁Fischen	-7689
▁Fitness	-7690
▁Fliesen	-7691
▁Gläsern	-7692
▁Hinterb	-7693
▁Häusern	-7694
▁Jockeys	-7695
▁Kameras	-7696
▁Plüscht	-7697
▁Schneeh	-7698
▁Smoking	-7699
▁Tablett	-7700
▁balding	-7701
▁boulder	-7702
▁cameras	-7703
▁closely	-7704
▁college	-7705
▁contest	-7706
▁crossed	-7707
▁dunklem	-7708
▁eastern	-7709
▁gehende	-7710
▁gepunkt	-7711
▁handing	-7712
▁heading	-7713
▁landing	-7714
▁listens	-7715
▁meeting	-7716
▁observe	-7717
▁oranges	-7718
▁paddeln	-7719
▁paralle	-7720
▁puppies	-7721
▁rainbow	-7722
▁referee	-7723
▁schneit	-7724
▁shining	-7725
▁smaller	-7726
▁stomach	-7727
▁strange	-7728
▁surgery	-7729
▁tattoos	-7730
▁terrain	-7731
▁treiben	-7732
▁trocken	-7733
▁vendors	-7734
▁waschen	-7735
▁workout	-7736
dachloser	-7737
geborenes	-7738
▁Aussicht	-7739
▁Bewegung	-7740
▁Holzbank	-7741
▁Lacrosse	-7742
▁Multiple	-7743
▁Produkte	-7744
▁Streifen	-7745
▁Swimming	-7746
▁Sängerin	-7747
▁Torhüter	-7748
▁Webstuhl	-7749
▁admiring	-7750
▁alleyway	-7751
▁applying	-7752
▁breakdan	-7753
▁clapping	-7754
▁examines	-7755
▁flipping	-7756
▁forehead	-7757
▁gehender	-7758
▁gleichen	-7759
▁homeless	-7760
▁kayaking	-7761
▁mithilfe	-7762
▁observes	-7763
▁overhead	-7764
▁rickshaw	-7765
▁sandigen	-7766
▁serviert	-7767
▁snowsuit	-7768
▁studying	-7769
▁unicycle	-7770
▁vehicles	-7771
▁verdeckt	-7772
▁waterway	-7773
▁wrestler	-7774
ansammlung	-7775
▁Bluejeans	-7776
▁Computern	-7777
▁Dämmerung	-7778
▁Eisenbahn	-7779
▁Gymnastik	-7780
▁Karussell	-7781
▁Mülltonne	-7782
▁Schildern	-7783
▁Segelboot	-7784
▁Stromschn	-7785
▁beisammen	-7786
▁bespritzt	-7787
▁carefully	-7788
▁emergency	-7789
▁geparkten	-7790
▁parachute	-7791
▁partially	-7792
▁passenger	-7793
▁practices	-7794
▁repairing	-7795
▁scheinbar	-7796
▁streichen	-7797
▁wakeboard	-7798
▁Badezimmer	-7799
▁Grasfläche	-7800
▁Lagerfeuer	-7801
▁Motorräder	-7802
▁aneinander	-7803
▁bekleidete	-7804
▁decorative	-7805
▁Essensstand	-7806
▁Laborkittel	-7807
▁Restaurants	-7808
▁Schulkinder	-7809
▁Spaziergang	-7810
▁Treppenhaus	-7811
▁Ureinwohner	-7812
▁Waschbecken	-7813
▁ausgestellt	-7814
▁aussehenden	-7815
▁erwachsener	-7816
▁interacting	-7817
▁merchandise	-7818
▁spielerisch	-7819
▁verschneite	-7820
▁vorbereitet	-7821
▁Präsentation	-7822
▁Sonnenschirm	-7823
▁eingezäunten	-7824
▁regnerischen	-7825
▁unbefestigte	-7826
▁unterrichtet	-7827
▁Wasserflasche	-7828
▁khakifarbenen	-7829
▁motorcyclists	-7830
▁Feuerwehrleute	-7831
▁Heißluftballon	-7832
▁amerikanischen	-7833
▁dunkelhaariger	-7834
CE	-7835
Fl	-7836
kn	-7837
uk	-7838
arp	-7839
bol	-7840
cil	-7841
ebo	-7842
fly	-7843
gef	-7844
kol	-7845
lac	-7846
mit	-7847
oft	-7848
quo	-7849
tub	-7850
uld	-7851
urz	-7852
val	-7853
vil	-7854
wed	-7855
üht	-7856
▁Cr	-7857
▁Ph	-7858
▁TV	-7859
▁Tö	-7860
▁du	-7861
▁fo	-7862
▁kl	-7863
▁my	-7864
aare	-7865
aint	-7866
anen	-7867
appy	-7868
arat	-7869
bare	-7870
bett	-7871
blät	-7872
cert	-7873
chan	-7874
cont	-7875
denk	-7876
ebeb	-7877
eite	-7878
elbe	-7879
ells	-7880
fert	-7881
heke	-7882
iene	-7883
ifft	-7884
ific	-7885
iosk	-7886
isse	-7887
kurs	-7888
leit	-7889
länd	-7890
netz	-7891
offt	-7892
oint	-7893
olke	-7894
otiv	-7895
putz	-7896
rail	-7897
rauß	-7898
stro	-7899
trik	-7900
umin	-7901
unts	-7902
uten	-7903
ziel	-7904
zing	-7905
ände	-7906
▁ATM	-7907
▁Axt	-7908
▁Bro	-7909
▁Cro	-7910
▁Del	-7911
▁Fem	-7912
▁Feu	-7913
▁Gre	-7914
▁Lat	-7915
▁Mün	-7916
▁Ped	-7917
▁Piz	-7918
▁Pop	-7919
▁Reg	-7920
▁Rik	-7921
▁Vol	-7922
▁abz	-7923
▁ado	-7924
▁aim	-7925
▁chr	-7926
▁erk	-7927
▁grö	-7928
▁ich	-7929
▁inj	-7930
▁lie	-7931
▁nam	-7932
▁pig	-7933
▁rif	-7934
▁sam	-7935
▁spü	-7936
▁tea	-7937
▁tri	-7938
▁wen	-7939
▁ähn	-7940
Derby	-7941
agull	-7942
ahnen	-7943
ashes	-7944
asken	-7945
atoes	-7946
bbing	-7947
borne	-7948
brush	-7949
draht	-7950
elzen	-7951
endem	-7952
ermin	-7953
ersby	-7954
figur	-7955
geren	-7956
gings	-7957
gress	-7958
haube	-7959
hause	-7960
iefel	-7961
illed	-7962
ipper	-7963
lafen	-7964
mäher	-7965
obahn	-7966
oring	-7967
rench	-7968
reten	-7969
rängt	-7970
teckt	-7971
ually	-7972
uquet	-7973
ymbol	-7974
ärmel	-7975
äumen	-7976
ücken	-7977
üllen	-7978
▁Auge	-7979
▁Bark	-7980
▁Dock	-7981
▁Ente	-7982
▁Film	-7983
▁Früh	-7984
▁Glat	-7985
▁Grau	-7986
▁Kauf	-7987
▁Kell	-7988
▁Kick	-7989
▁Kran	-7990
▁Leit	-7991
▁Mais	-7992
▁Ofen	-7993
▁Puck	-7994
▁Punk	-7995
▁Reis	-7996
▁Skil	-7997
▁Trib	-7998
▁Turm	-7999
▁bank	-8000
▁brot	-8001
▁camp	-8002
▁cans	-8003
▁cape	-8004
▁clad	-8005
▁dazu	-8006
▁euro	-8007
▁fort	-8008
▁hart	-8009
▁heav	-8010
▁herr	-8011
▁hohe	-8012
▁jogs	-8013
▁krat	-8014
▁lamp	-8015
▁lass	-8016
▁lens	-8017
▁meas	-8018
▁pigt	-8019
▁plat	-8020
▁pots	-8021
▁seas	-8022
▁sele	-8023
▁semi	-8024
▁shaw	-8025
▁spar	-8026
▁stap	-8027
▁stir	-8028
▁unlo	-8029
▁verd	-8030
▁wrap	-8031
Outfit	-8032
alerie	-8033
bbraun	-8034
becher	-8035
ckigen	-8036
ehraut	-8037
gesetz	-8038
graben	-8039
ichter	-8040
ightly	-8041
imonos	-8042
kräfte	-8043
leicht	-8044
objekt	-8045
rating	-8046
roffen	-8047
sachen	-8048
statue	-8049
urnier	-8050
weight	-8051
werker	-8052
zeitig	-8053
äbchen	-8054
▁Adult	-8055
▁Blech	-8056
▁Einer	-8057
▁Fecht	-8058
▁Felsk	-8059
▁Firef	-8060
▁Flöte	-8061
▁Helme	-8062
▁Kante	-8063
▁Kerle	-8064
▁Lasso	-8065
▁Later	-8066
▁Lokal	-8067
▁Miami	-8068
▁Music	-8069
▁Möbel	-8070
▁Netze	-8071
▁Sicht	-8072
▁Speer	-8073
▁Waffe	-8074
▁Wange	-8075
▁Zauns	-8076
▁aband	-8077
▁activ	-8078
▁angeh	-8079
▁backs	-8080
▁blind	-8081
▁boxen	-8082
▁carts	-8083
▁cheek	-8084
▁coast	-8085
▁dives	-8086
▁drill	-8087
▁dusty	-8088
▁eight	-8089
▁flips	-8090
▁hohes	-8091
▁horiz	-8092
▁legen	-8093
▁lifts	-8094
▁lower	-8095
▁marin	-8096
▁medit	-8097
▁moder	-8098
▁mower	-8099
▁picks	-8100
▁polit	-8101
▁power	-8102
▁quiet	-8103
▁relig	-8104
▁ruhen	-8105
▁seich	-8106
▁serve	-8107
▁space	-8108
▁spark	-8109
▁stall	-8110
▁stare	-8111
▁story	-8112
▁surfs	-8113
▁verbr	-8114
▁wings	-8115
angehör	-8116
breitet	-8117
contain	-8118
eingang	-8119
estrian	-8120
kapelle	-8121
konzert	-8122
▁Anweis	-8123
▁Banner	-8124
▁Blasen	-8125
▁Bällen	-8126
▁Großer	-8127
▁Holzst	-8128
▁Jacket	-8129
▁Kneipe	-8130
▁Liefer	-8131
▁Mohawk	-8132
▁Morgen	-8133
▁Muster	-8134
▁Partie	-8135
▁Riksch	-8136
▁Schein	-8137
▁Seilen	-8138
▁Shirts	-8139
▁Spider	-8140
▁Stativ	-8141
▁Strick	-8142
▁Tracht	-8143
▁Turban	-8144
▁autumn	-8145
▁bilden	-8146
▁biting	-8147
▁checks	-8148
▁dieser	-8149
▁employ	-8150
▁farmer	-8151
▁fischt	-8152
▁floats	-8153
▁handle	-8154
▁houses	-8155
▁jubeln	-8156
▁muzzle	-8157
▁nature	-8158
▁oberen	-8159
▁played	-8160
▁portra	-8161
▁racers	-8162
▁return	-8163
▁rudern	-8164
▁scouts	-8165
▁shaped	-8166
▁shaved	-8167
▁shower	-8168
▁stilts	-8169
▁ticket	-8170
▁trifft	-8171
▁trucks	-8172
▁turned	-8173
Geschäft	-8174
behälter	-8175
bereiten	-8176
gebäudes	-8177
klettert	-8178
unkelten	-8179
▁Afrikan	-8180
▁Bauwerk	-8181
▁College	-8182
▁Concert	-8183
▁Cowboys	-8184
▁Dreirad	-8185
▁Eiswaff	-8186
▁Flusses	-8187
▁Friseur	-8188
▁Früchte	-8189
▁Gleisen	-8190
▁Kellner	-8191
▁Maschen	-8192
▁Nachbar	-8193
▁Smiling	-8194
▁Stammes	-8195
▁Stelzen	-8196
▁Stöcken	-8197
▁Trainer	-8198
▁acrobat	-8199
▁barrier	-8200
▁butcher	-8201
▁camping	-8202
▁cowboys	-8203
▁express	-8204
▁filling	-8205
▁firemen	-8206
▁foliage	-8207
▁gallery	-8208
▁gefüllt	-8209
▁hübsche	-8210
▁incline	-8211
▁juggles	-8212
▁laptops	-8213
▁lighted	-8214
▁löschen	-8215
▁monitor	-8216
▁morning	-8217
▁newborn	-8218
▁oranger	-8219
▁peeking	-8220
▁placing	-8221
▁pumpkin	-8222
▁rafting	-8223
▁sammeln	-8224
▁similar	-8225
▁touches	-8226
▁weitere	-8227
bedeckten	-8228
etterling	-8229
spielerin	-8230
spielzeug	-8231
uniformen	-8232
vorsprung	-8233
▁Autobahn	-8234
▁Demonstr	-8235
▁Fahrrads	-8236
▁Freundin	-8237
▁Grimasse	-8238
▁Holzzaun	-8239
▁Händchen	-8240
▁Kunstwer	-8241
▁Laternen	-8242
▁Laufbahn	-8243
▁Picknick	-8244
▁Schilder	-8245
▁Schotter	-8246
▁Shepherd	-8247
▁Säugling	-8248
▁berühren	-8249
▁bouncing	-8250
▁branches	-8251
▁crouched	-8252
▁dragging	-8253
▁driveway	-8254
▁entering	-8255
▁handrail	-8256
▁jüngeren	-8257
▁klatscht	-8258
▁lockigen	-8259
▁nächsten	-8260
▁official	-8261
▁pigtails	-8262
▁rutschen	-8263
▁schminkt	-8264
▁seichten	-8265
▁shepherd	-8266
▁stehende	-8267
▁stepping	-8268
▁straight	-8269
▁teammate	-8270
▁tricycle	-8271
▁tropical	-8272
▁Caucasian	-8273
▁Hamburger	-8274
▁Maschinen	-8275
▁Patienten	-8276
▁Rollschuh	-8277
▁adjusting	-8278
▁barfüßige	-8279
▁butterfly	-8280
▁christmas	-8281
▁erklimmen	-8282
▁finishing	-8283
▁gelbbraun	-8284
▁paperwork	-8285
▁patterned	-8286
▁rückwärts	-8287
▁shoreline	-8288
▁snowshoes	-8289
▁stehender	-8290
▁telephone	-8291
▁underwear	-8292
entlichkeit	-8293
geschnitten	-8294
▁Landstraße	-8295
▁Mitglieder	-8296
▁Plüschtier	-8297
▁Wildwasser	-8298
▁Ziegelwand	-8299
▁befahrenen	-8300
▁bewaldeten	-8301
▁chopsticks	-8302
▁electronic	-8303
▁helicopter	-8304
▁lächelnden	-8305
▁ländlichen	-8306
▁presenting	-8307
▁silhouette	-8308
▁vielleicht	-8309
mannschaften	-8310
▁Badeanzügen	-8311
▁Bauernmarkt	-8312
▁Bergsteiger	-8313
▁Felsbrocken	-8314
▁Pedestrians	-8315
▁Plastiktüte	-8316
▁Unterwäsche	-8317
▁celebration	-8318
▁herumstehen	-8319
▁protestiert	-8320
▁präsentiert	-8321
▁Feuerwehraut	-8322
▁Freizeitpark	-8323
▁Fußballdress	-8324
▁Geländewagen	-8325
▁Maschendraht	-8326
▁Namensschild	-8327
▁Swimmingpool	-8328
▁ausgebreitet	-8329
▁elektrischen	-8330
▁gleichzeitig	-8331
▁heraushängen	-8332
▁pinkfarbener	-8333
▁Schmetterling	-8334
▁eingeschlafen	-8335
▁orientalische	-8336
▁rollerskating	-8337
▁Einkaufstasche	-8338
▁Marathonläufer	-8339
▁Stromschnellen	-8340
▁amerikanischer	-8341
▁unordentlichen	-8342
▁Öffentlichkeit	-8343
▁Beachvolleyball	-8344
MC	-8345
ii	-8346
rd	-8347
äg	-8348
▁#	-8349
▁,	-8350
Bob	-8351
akt	-8352
aph	-8353
aps	-8354
bed	-8355
bot	-8356
bär	-8357
car	-8358
con	-8359
ees	-8360
ehm	-8361
ena	-8362
ffe	-8363
fig	-8364
hop	-8365
ibr	-8366
imp	-8367
ixt	-8368
lie	-8369
lly	-8370
pfl	-8371
pie	-8372
uhr	-8373
äun	-8374
▁Em	-8375
▁Ho	-8376
▁NY	-8377
▁Uf	-8378
▁mü	-8379
▁ox	-8380
Band	-8381
aggy	-8382
agle	-8383
amte	-8384
cake	-8385
ebel	-8386
ebla	-8387
ebra	-8388
elin	-8389
ened	-8390
gabe	-8391
homa	-8392
horn	-8393
iben	-8394
ikul	-8395
ilst	-8396
ints	-8397
iped	-8398
ivil	-8399
leas	-8400
loss	-8401
mint	-8402
mitt	-8403
ollt	-8404
olog	-8405
olor	-8406
oses	-8407
owed	-8408
riot	-8409
saal	-8410
spre	-8411
tain	-8412
trie	-8413
uger	-8414
uing	-8415
umbs	-8416
urky	-8417
used	-8418
äumt	-8419
ücke	-8420
ühne	-8421
ünen	-8422
▁Ang	-8423
▁Bic	-8424
▁Din	-8425
▁Eim	-8426
▁Ged	-8427
▁His	-8428
▁Hör	-8429
▁Jet	-8430
▁Lim	-8431
▁Mem	-8432
▁Mül	-8433
▁Num	-8434
▁Pos	-8435
▁Rod	-8436
▁Ser	-8437
▁Ste	-8438
▁Var	-8439
▁Wol	-8440
▁Zer	-8441
▁Zuh	-8442
▁bab	-8443
▁bec	-8444
▁dot	-8445
▁eas	-8446
▁egg	-8447
▁erw	-8448
▁est	-8449
▁fac	-8450
▁hom	-8451
▁ill	-8452
▁kra	-8453
▁les	-8454
▁lim	-8455
▁loh	-8456
▁pow	-8457
▁pun	-8458
▁sal	-8459
▁sne	-8460
▁tem	-8461
▁tor	-8462
▁ump	-8463
▁umr	-8464
aften	-8465
aling	-8466
ampag	-8467
ature	-8468
berry	-8469
borat	-8470
boten	-8471
chsen	-8472
craft	-8473
ebook	-8474
ertag	-8475
eschw	-8476
etrie	-8477
feier	-8478
ieger	-8479
igner	-8480
inten	-8481
itish	-8482
itzer	-8483
korat	-8484
nisse	-8485
obile	-8486
oftop	-8487
ompan	-8488
oseup	-8489
panic	-8490
pfahl	-8491
punkt	-8492
reide	-8493
schle	-8494
spark	-8495
ssaal	-8496
sseln	-8497
tritt	-8498
ubsch	-8499
udeln	-8500
under	-8501
uples	-8502
uzzle	-8503
wandt	-8504
wolke	-8505
zeria	-8506
ündet	-8507
▁Acht	-8508
▁Asia	-8509
▁Best	-8510
▁Bohr	-8511
▁Dirt	-8512
▁Dogs	-8513
▁Esst	-8514
▁Heim	-8515
▁Hüpf	-8516
▁Knie	-8517
▁Lein	-8518
▁Lots	-8519
▁Mick	-8520
▁Obje	-8521
▁Okla	-8522
▁Post	-8523
▁Rosa	-8524
▁Runn	-8525
▁Schr	-8526
▁Sieg	-8527
▁Temp	-8528
▁They	-8529
▁Vend	-8530
▁Walk	-8531
▁Woll	-8532
▁abzu	-8533
▁army	-8534
▁blur	-8535
▁case	-8536
▁chis	-8537
▁comf	-8538
▁cott	-8539
▁cray	-8540
▁cups	-8541
▁deut	-8542
▁done	-8543
▁elev	-8544
▁erho	-8545
▁fern	-8546
▁flas	-8547
▁förm	-8548
▁hydr	-8549
▁inst	-8550
▁late	-8551
▁meiß	-8552
▁more	-8553
▁nail	-8554
▁rabb	-8555
▁recl	-8556
▁rows	-8557
▁scra	-8558
▁shel	-8559
▁skyd	-8560
▁sque	-8561
▁sägt	-8562
▁task	-8563
▁text	-8564
▁trib	-8565
▁verm	-8566
▁weig	-8567
▁weil	-8568
▁yarn	-8569
▁zuge	-8570
achers	-8571
blickt	-8572
bürste	-8573
coming	-8574
emonie	-8575
enaiss	-8576
ensive	-8577
estand	-8578
froren	-8579
garten	-8580
gitter	-8581
grauen	-8582
houett	-8583
ierend	-8584
igning	-8585
liegen	-8586
minton	-8587
oodles	-8588
quoise	-8589
rauber	-8590
rägern	-8591
rücken	-8592
schung	-8593
stroke	-8594
tender	-8595
treppe	-8596
ummern	-8597
ußball	-8598
werfen	-8599
zenden	-8600
äufern	-8601
ürstet	-8602
▁Alter	-8603
▁Amish	-8604
▁Ampel	-8605
▁Apfel	-8606
▁Apple	-8607
▁Banjo	-8608
▁Beine	-8609
▁Boxer	-8610
▁Cello	-8611
▁Draht	-8612
▁Dress	-8613
▁Eight	-8614
▁Engel	-8615
▁Grund	-8616
▁Hause	-8617
▁Inder	-8618
▁Linie	-8619
▁Nebel	-8620
▁Paare	-8621
▁Pizza	-8622
▁Puppe	-8623
▁Richt	-8624
▁Röhre	-8625
▁Starb	-8626
▁Szene	-8627
▁Säule	-8628
▁Theat	-8629
▁Tiere	-8630
▁Tüten	-8631
▁Video	-8632
▁Volks	-8633
▁Weing	-8634
▁banjo	-8635
▁bends	-8636
▁betet	-8637
▁blaug	-8638
▁bräun	-8639
▁built	-8640
▁cries	-8641
▁crown	-8642
▁ducks	-8643
▁every	-8644
▁filmt	-8645
▁first	-8646
▁flock	-8647
▁flute	-8648
▁formt	-8649
▁games	-8650
▁gespr	-8651
▁gradu	-8652
▁grasp	-8653
▁holen	-8654
▁knall	-8655
▁knien	-8656
▁kunst	-8657
▁ließt	-8658
▁lobby	-8659
▁mixer	-8660
▁murky	-8661
▁nächt	-8662
▁ponyt	-8663
▁prüft	-8664
▁purch	-8665
▁rally	-8666
▁range	-8667
▁score	-8668
▁sides	-8669
▁staff	-8670
▁stolz	-8671
▁stoop	-8672
▁stump	-8673
▁techn	-8674
▁tiled	-8675
▁tired	-8676
▁torch	-8677
▁tourn	-8678
▁tread	-8679
▁treat	-8680
▁twirl	-8681
▁vorne	-8682
▁wares	-8683
Scheibe	-8684
agieren	-8685
braunem	-8686
colored	-8687
country	-8688
ehendes	-8689
erseite	-8690
geräten	-8691
gnügung	-8692
kulptur	-8693
lestone	-8694
ongeBob	-8695
ongings	-8696
tenance	-8697
ternoon	-8698
öffnung	-8699
▁Bildes	-8700
▁Busses	-8701
▁Clowns	-8702
▁Couple	-8703
▁Disney	-8704
▁Dunkel	-8705
▁Europa	-8706
▁Female	-8707
▁Freude	-8708
▁Geschw	-8709
▁Gipfel	-8710
▁Hallen	-8711
▁Katzen	-8712
▁Kindes	-8713
▁Moment	-8714
▁Mother	-8715
▁Ozeans	-8716
▁Perlen	-8717
▁Platte	-8718
▁Schnur	-8719
▁School	-8720
▁Schuss	-8721
▁Schwer	-8722
▁Studio	-8723
▁Stöcke	-8724
▁Säulen	-8725
▁Unfall	-8726
▁Versch	-8727
▁Vögeln	-8728
▁Werfer	-8729
▁Wolken	-8730
▁albern	-8731
▁attack	-8732
▁attend	-8733
▁aufger	-8734
▁begins	-8735
▁bindet	-8736
▁cannon	-8737
▁cherry	-8738
▁drückt	-8739
▁engine	-8740
▁establ	-8741
▁fishes	-8742
▁frozen	-8743
▁füllen	-8744
▁gazing	-8745
▁harmon	-8746
▁hiding	-8747
▁inform	-8748
▁jumper	-8749
▁kratzt	-8750
▁kurzem	-8751
▁mechan	-8752
▁mischt	-8753
▁monkey	-8754
▁muskul	-8755
▁places	-8756
▁purses	-8757
▁putzen	-8758
▁really	-8759
▁rechte	-8760
▁sawing	-8761
▁selbst	-8762
▁shaggy	-8763
▁skater	-8764
▁skinny	-8765
▁spread	-8766
▁strugg	-8767
▁trains	-8768
▁trench	-8769
▁turkey	-8770
▁unique	-8771
▁walked	-8772
▁warmen	-8773
▁washes	-8774
American	-8775
Football	-8776
Oberteil	-8777
boratory	-8778
klettern	-8779
kreuzten	-8780
parcours	-8781
pielzeug	-8782
standers	-8783
wegungen	-8784
ydranten	-8785
▁Auslage	-8786
▁Bandana	-8787
▁Billard	-8788
▁Brillen	-8789
▁British	-8790
▁Camping	-8791
▁Closeup	-8792
▁Elderly	-8793
▁Gericht	-8794
▁Geräten	-8795
▁Haltung	-8796
▁Jackett	-8797
▁Pferder	-8798
▁Pflanze	-8799
▁Popcorn	-8800
▁Rennens	-8801
▁Rettung	-8802
▁Runners	-8803
▁Scheibe	-8804
▁Sooners	-8805
▁Strands	-8806
▁Theater	-8807
▁Tomaten	-8808
▁Univers	-8809
▁ansehen	-8810
▁bathtub	-8811
▁bedruck	-8812
▁besucht	-8813
▁bouquet	-8814
▁brother	-8815
▁bürstet	-8816
▁chewing	-8817
▁concent	-8818
▁dekorat	-8819
▁exhibit	-8820
▁feather	-8821
▁fischen	-8822
▁fremden	-8823
▁hochgeh	-8824
▁hydrant	-8825
▁industr	-8826
▁legerer	-8827
▁meißelt	-8828
▁napping	-8829
▁painter	-8830
▁parents	-8831
▁pathway	-8832
▁pattern	-8833
▁pillows	-8834
▁printed	-8835
▁product	-8836
▁rooftop	-8837
▁schöner	-8838
▁seagull	-8839
▁section	-8840
▁sorting	-8841
▁speaker	-8842
▁sprayed	-8843
▁tending	-8844
▁tossing	-8845
▁vending	-8846
▁watched	-8847
arterback	-8848
container	-8849
ellschaft	-8850
schriften	-8851
zeichnung	-8852
▁Anhänger	-8853
▁Eiscreme	-8854
▁Erdhügel	-8855
▁Fischern	-8856
▁Karohemd	-8857
▁Kaufhaus	-8858
▁Oklahoma	-8859
▁Overalls	-8860
▁Parcours	-8861
▁Rücksitz	-8862
▁Schlucht	-8863
▁Trommeln	-8864
▁Tänzerin	-8865
▁airborne	-8866
▁angemalt	-8867
▁athletes	-8868
▁blankets	-8869
▁casually	-8870
▁checkers	-8871
▁chopping	-8872
▁collared	-8873
▁complete	-8874
▁customer	-8875
▁dumpster	-8876
▁erklimmt	-8877
▁exercise	-8878
▁facility	-8879
▁fröhlich	-8880
▁gestikul	-8881
▁gestures	-8882
▁grabbing	-8883
▁jüngerer	-8884
▁location	-8885
▁operates	-8886
▁parallel	-8887
▁products	-8888
▁rostigen	-8889
▁shoppers	-8890
▁slightly	-8891
▁spaziert	-8892
▁speeding	-8893
▁splashed	-8894
▁suitcase	-8895
▁sunlight	-8896
▁tagsüber	-8897
▁waterski	-8898
▁workshop	-8899
enaissance	-8900
wettbewerb	-8901
▁Einkäufer	-8902
▁Gewändern	-8903
▁McDonalds	-8904
▁Obststand	-8905
▁Schachtel	-8906
▁Schüsseln	-8907
▁Starbucks	-8908
▁Windhunde	-8909
▁Zeremonie	-8910
▁Ziellinie	-8911
▁abandoned	-8912
▁afternoon	-8913
▁bartender	-8914
▁begleitet	-8915
▁beverages	-8916
▁bleachers	-8917
▁embracing	-8918
▁fountains	-8919
▁gefüllten	-8920
▁getroffen	-8921
▁groceries	-8922
▁hammering	-8923
▁highchair	-8924
▁indischer	-8925
▁kleineren	-8926
▁langärmel	-8927
▁magazines	-8928
▁möglicher	-8929
▁passersby	-8930
▁playfully	-8931
▁receiving	-8932
▁redheaded	-8933
▁schaufeln	-8934
▁schaukeln	-8935
▁schwenken	-8936
▁schwingen	-8937
▁schütteln	-8938
▁screaming	-8939
▁seltsamen	-8940
▁silhouett	-8941
▁staubigen	-8942
▁stretches	-8943
▁traveling	-8944
▁turquoise	-8945
ausstellung	-8946
ubschrauber	-8947
▁Brettspiel	-8948
▁Feldhockey	-8949
▁Fußgängern	-8950
▁Gesichtern	-8951
▁Kunstwerke	-8952
▁Luftballon	-8953
▁Passagiere	-8954
▁Pferdeschw	-8955
▁Radfahrern	-8956
▁Richtungen	-8957
▁Spielzeuge	-8958
▁Teilnehmer	-8959
▁Türöffnung	-8960
▁Vergnügung	-8961
▁abgeworfen	-8962
▁ausgezogen	-8963
▁belongings	-8964
▁bestehende	-8965
▁bystanders	-8966
▁cellphones	-8967
▁chalkboard	-8968
▁department	-8969
▁enthusiast	-8970
▁fliegenden	-8971
▁gesprungen	-8972
▁geöffneten	-8973
▁herunterge	-8974
▁laboratory	-8975
▁overweight	-8976
▁tournament	-8977
▁Ausstellung	-8978
▁Kleinkinder	-8979
▁Lieferwagen	-8980
▁Musikgruppe	-8981
▁Rasenfläche	-8982
▁Schneeanzug	-8983
▁Skateboards	-8984
▁Spiegelbild	-8985
▁Tätowierung	-8986
▁cobblestone	-8987
▁geschnitten	-8988
▁interesting	-8989
▁japanischen	-8990
▁parasailing	-8991
▁rosafarbene	-8992
▁Baseballfeld	-8993
▁Blumenmuster	-8994
▁Gegenständen	-8995
▁Inlineskates	-8996
▁Jugendlichen	-8997
▁Mannschaften	-8998
▁Reklametafel	-8999
▁Tarnkleidung	-9000
▁Unterhaltung	-9001
▁Wasserbecken	-9002
▁breakdancing	-9003
▁photographed	-9004
▁rollerblades	-9005
▁rosafarbener	-9006
▁Einkaufstüten	-9007
▁Felsvorsprung	-9008
▁Feuerwehrauto	-9009
▁Lebensmitteln	-9010
▁Schneeschuhen	-9011
▁Teenageralter	-9012
▁Treppenstufen	-9013
▁Ziegelgebäude	-9014
▁afrikanischen	-9015
▁beigefarbenen	-9016
▁braunhaariger	-9017
▁Schutzkleidung	-9018
▁Trainingsanzug	-9019
▁Wassersprenger	-9020
▁möglicherweise	-9021
▁Kopfbedeckungen	-9022
▁Vergnügungspark	-9023
▁heraushängender	-9024
▁schneebedecktes	-9025
▁X	-9026
▁x	-9027
Car	-9028
cep	-9029
frü	-9030
hte	-9031
oda	-9032
ogo	-9033
oke	-9034
oms	-9035
phy	-9036
rah	-9037
ruh	-9038
ski	-9039
sur	-9040
tra	-9041
uhn	-9042
vas	-9043
yro	-9044
äte	-9045
ügt	-9046
▁11	-9047
▁Ba	-9048
▁Et	-9049
▁Gl	-9050
▁Pi	-9051
▁Sc	-9052
▁Sy	-9053
▁We	-9054
▁Wä	-9055
▁ut	-9056
▁vö	-9057
▁wa	-9058
Skat	-9059
ackt	-9060
adow	-9061
alst	-9062
appt	-9063
auna	-9064
biet	-9065
bing	-9066
dles	-9067
eled	-9068
enna	-9069
ense	-9070
enue	-9071
flip	-9072
fält	-9073
gesp	-9074
gibt	-9075
gram	-9076
hoch	-9077
icle	-9078
iety	-9079
ifts	-9080
itch	-9081
ivan	-9082
izes	-9083
kann	-9084
lern	-9085
llig	-9086
loch	-9087
lose	-9088
most	-9089
omet	-9090
onch	-9091
ongo	-9092
orte	-9093
osed	-9094
pult	-9095
rons	-9096
stab	-9097
telt	-9098
uggy	-9099
unft	-9100
unte	-9101
utes	-9102
wear	-9103
ägen	-9104
ären	-9105
äter	-9106
öser	-9107
ühlt	-9108
ützt	-9109
▁Ans	-9110
▁Bed	-9111
▁Dig	-9112
▁Dom	-9113
▁Ent	-9114
▁Ere	-9115
▁Fan	-9116
▁Fis	-9117
▁Gok	-9118
▁Hos	-9119
▁Kok	-9120
▁Män	-9121
▁Mön	-9122
▁Pre	-9123
▁Rep	-9124
▁San	-9125
▁Sen	-9126
▁Ult	-9127
▁Zyl	-9128
▁cit	-9129
▁dun	-9130
▁ess	-9131
▁icy	-9132
▁jud	-9133
▁kap	-9134
▁lip	-9135
▁mel	-9136
▁oil	-9137
▁rag	-9138
▁ros	-9139
▁shr	-9140
▁sow	-9141
▁säu	-9142
▁unh	-9143
▁wig	-9144
ahlen	-9145
amter	-9146
anken	-9147
antly	-9148
apped	-9149
aract	-9150
arbor	-9151
bbelt	-9152
blick	-9153
cular	-9154
egaph	-9155
egeln	-9156
eiler	-9157
ering	-9158
field	-9159
gaben	-9160
hunde	-9161
icans	-9162
iesch	-9163
ifier	-9164
ignis	-9165
ities	-9166
itive	-9167
kohol	-9168
lippe	-9169
lling	-9170
läuft	-9171
mitgl	-9172
ollie	-9173
onnen	-9174
ontur	-9175
ossen	-9176
oting	-9177
pferd	-9178
point	-9179
rated	-9180
regal	-9181
ridor	-9182
romat	-9183
rünen	-9184
ständ	-9185
tered	-9186
terns	-9187
ucher	-9188
uscht	-9189
works	-9190
ämmen	-9191
▁Arch	-9192
▁Bege	-9193
▁Body	-9194
▁Eier	-9195
▁Fang	-9196
▁Farm	-9197
▁Form	-9198
▁Garn	-9199
▁Gest	-9200
▁Gurt	-9201
▁Guys	-9202
▁Halb	-9203
▁Hier	-9204
▁Ital	-9205
▁Kilt	-9206
▁Kont	-9207
▁Live	-9208
▁Marm	-9209
▁Nike	-9210
▁Pult	-9211
▁Rast	-9212
▁Rode	-9213
▁Rohr	-9214
▁Shop	-9215
▁Side	-9216
▁Somm	-9217
▁Säge	-9218
▁bast	-9219
▁bell	-9220
▁bowt	-9221
▁bump	-9222
▁cage	-9223
▁cash	-9224
▁chin	-9225
▁choc	-9226
▁dive	-9227
▁einf	-9228
▁erre	-9229
▁erst	-9230
▁fell	-9231
▁here	-9232
▁hübs	-9233
▁kilt	-9234
▁lack	-9235
▁lead	-9236
▁lean	-9237
▁lips	-9238
▁mail	-9239
▁menu	-9240
▁mini	-9241
▁miss	-9242
▁mäht	-9243
▁pads	-9244
▁pock	-9245
▁pust	-9246
▁quad	-9247
▁riot	-9248
▁sees	-9249
▁slic	-9250
▁soll	-9251
▁spin	-9252
▁styl	-9253
▁stür	-9254
▁tail	-9255
▁tape	-9256
▁tarp	-9257
▁teal	-9258
▁test	-9259
▁than	-9260
▁thre	-9261
▁unus	-9262
▁vibr	-9263
▁vide	-9264
▁ware	-9265
▁wett	-9266
▁ziel	-9267
▁zomb	-9268
arbiet	-9269
athlet	-9270
ations	-9271
blader	-9272
bällen	-9273
enschn	-9274
erness	-9275
fernen	-9276
feuert	-9277
führer	-9278
gegend	-9279
gelber	-9280
geschä	-9281
gestür	-9282
gnügen	-9283
ielder	-9284
inchen	-9285
iniert	-9286
iolett	-9287
karren	-9288
karten	-9289
körben	-9290
leimer	-9291
mittag	-9292
perspe	-9293
putzer	-9294
rahmen	-9295
rochen	-9296
schuhe	-9297
schutz	-9298
storte	-9299
strauß	-9300
teilen	-9301
trikot	-9302
ucking	-9303
usband	-9304
usehen	-9305
wander	-9306
weißes	-9307
ärlich	-9308
▁Board	-9309
▁Busch	-9310
▁Fahrg	-9311
▁Gehst	-9312
▁Gemüs	-9313
▁Green	-9314
▁Grünf	-9315
▁Gummi	-9316
▁Halst	-9317
▁Khaki	-9318
▁Kugel	-9319
▁Obama	-9320
▁Osten	-9321
▁Palme	-9322
▁Power	-9323
▁Profi	-9324
▁Schaf	-9325
▁Schok	-9326
▁Spitz	-9327
▁Sprüh	-9328
▁Stern	-9329
▁Tages	-9330
▁Taube	-9331
▁Teddy	-9332
▁Truth	-9333
▁Ufers	-9334
▁Wäsch	-9335
▁Ziege	-9336
▁akust	-9337
▁await	-9338
▁award	-9339
▁beten	-9340
▁brass	-9341
▁campf	-9342
▁cooks	-9343
▁crack	-9344
▁crops	-9345
▁darin	-9346
▁denkt	-9347
▁desks	-9348
▁diese	-9349
▁dirig	-9350
▁easel	-9351
▁falls	-9352
▁furry	-9353
▁gazes	-9354
▁hills	-9355
▁hohem	-9356
▁hoher	-9357
▁holid	-9358
▁human	-9359
▁lasso	-9360
▁maneu	-9361
▁mount	-9362
▁neong	-9363
▁olymp	-9364
▁opens	-9365
▁overs	-9366
▁pilot	-9367
▁pours	-9368
▁rifle	-9369
▁ruhig	-9370
▁rührt	-9371
▁saugt	-9372
▁scoop	-9373
▁separ	-9374
▁shawl	-9375
▁skies	-9376
▁smoot	-9377
▁speak	-9378
▁spins	-9379
▁späht	-9380
▁squee	-9381
▁stops	-9382
▁stuck	-9383
▁stößt	-9384
▁teens	-9385
▁tooth	-9386
▁venue	-9387
▁wineg	-9388
▁übers	-9389
▁überw	-9390
Zeichen	-9391
ational	-9392
bathing	-9393
erinnen	-9394
farbige	-9395
galerie	-9396
gematte	-9397
gestrei	-9398
iercing	-9399
iletten	-9400
ishment	-9401
leidung	-9402
mercial	-9403
striped	-9404
unehmen	-9405
vention	-9406
verkehr	-9407
viertel	-9408
▁Adults	-9409
▁Anzahl	-9410
▁Athlet	-9411
▁Booten	-9412
▁Bootes	-9413
▁Bruder	-9414
▁Custom	-9415
▁Domino	-9416
▁Eimern	-9417
▁Erzeug	-9418
▁Fackel	-9419
▁Fangen	-9420
▁Fliege	-9421
▁Frisur	-9422
▁Gleich	-9423
▁Gürtel	-9424
▁Handys	-9425
▁Hosent	-9426
▁Hunder	-9427
▁Island	-9428
▁Können	-9429
▁Körben	-9430
▁Lampen	-9431
▁Leucht	-9432
▁Mickey	-9433
▁Muslim	-9434
▁Pfeife	-9435
▁Schieß	-9436
▁Speise	-9437
▁Stofft	-9438
▁Waffen	-9439
▁Weißer	-9440
▁Wetter	-9441
▁Worker	-9442
▁Xyloph	-9443
▁Ziegen	-9444
▁almost	-9445
▁aprons	-9446
▁babies	-9447
▁battle	-9448
▁beanie	-9449
▁beschn	-9450
▁boards	-9451
▁bundle	-9452
▁buried	-9453
▁canvas	-9454
▁casino	-9455
▁collie	-9456
▁contra	-9457
▁conven	-9458
▁folded	-9459
▁freien	-9460
▁grinds	-9461
▁harbor	-9462
▁hervor	-9463
▁hinweg	-9464
▁images	-9465
▁jumped	-9466
▁khakis	-9467
▁kisses	-9468
▁klaren	-9469
▁lernen	-9470
▁lifted	-9471
▁lively	-9472
▁looked	-9473
▁marble	-9474
▁meadow	-9475
▁medium	-9476
▁nurses	-9477
▁parent	-9478
▁pencil	-9479
▁placed	-9480
▁poodle	-9481
▁potato	-9482
▁retrie	-9483
▁rustic	-9484
▁scenic	-9485
▁schmet	-9486
▁seicht	-9487
▁shades	-9488
▁single	-9489
▁skatet	-9490
▁skills	-9491
▁snacks	-9492
▁sprüht	-9493
▁squats	-9494
▁steile	-9495
▁stürzt	-9496
▁tackle	-9497
▁temple	-9498
▁thumbs	-9499
▁tights	-9500
▁treadm	-9501
▁trüben	-9502
▁typing	-9503
▁umpire	-9504
▁verlet	-9505
▁vorder	-9506
▁weight	-9507
▁whilst	-9508
▁wilden	-9509
▁xyloph	-9510
▁Ältere	-9511
▁öffnen	-9512
aracters	-9513
bewegung	-9514
bewohner	-9515
einfahrt	-9516
flaschen	-9517
gebracht	-9518
gehenden	-9519
genommen	-9520
isterung	-9521
oberteil	-9522
schungel	-9523
struktur	-9524
zeichnet	-9525
▁Asphalt	-9526
▁Bananen	-9527
▁Barkeep	-9528
▁Draußen	-9529
▁Eastern	-9530
▁Elektro	-9531
▁Flügeln	-9532
▁Kartoff	-9533
▁Laptops	-9534
▁Mexican	-9535
▁Nummern	-9536
▁Platten	-9537
▁Players	-9538
▁Produkt	-9539
▁Rikscha	-9540
▁Schneem	-9541
▁Schneid	-9542
▁Staubsa	-9543
▁Stiefel	-9544
▁Strumpf	-9545
▁Tribüne	-9546
▁Vendors	-9547
▁Wasserf	-9548
▁Wildnis	-9549
▁adjusts	-9550
▁amongst	-9551
▁artwork	-9552
▁bananas	-9553
▁beating	-9554
▁bleiben	-9555
▁brushes	-9556
▁carrier	-9557
▁catcher	-9558
▁chinese	-9559
▁classic	-9560
▁cleaner	-9561
▁columns	-9562
▁complet	-9563
▁couples	-9564
▁designs	-9565
▁filming	-9566
▁forward	-9567
▁gathers	-9568
▁gesehen	-9569
▁hammock	-9570
▁highway	-9571
▁injured	-9572
▁jüngere	-9573
▁leotard	-9574
▁licking	-9575
▁muzzled	-9576
▁process	-9577
▁quickly	-9578
▁richten	-9579
▁scarves	-9580
▁schwebt	-9581
▁schwere	-9582
▁service	-9583
▁signing	-9584
▁skaters	-9585
▁special	-9586
▁stehend	-9587
▁stripes	-9588
▁trottet	-9589
▁umgedre	-9590
▁unglück	-9591
▁unhappy	-9592
▁verschw	-9593
▁zuhause	-9594
▁zurecht	-9595
▁überall	-9596
arbietung	-9597
ebebalken	-9598
wettkampf	-9599
▁Brunette	-9600
▁Eiswagen	-9601
▁Ereignis	-9602
▁Esstisch	-9603
▁Fenstern	-9604
▁Forscher	-9605
▁Friedens	-9606
▁Getreide	-9607
▁Gitarren	-9608
▁Laufband	-9609
▁Leinwand	-9610
▁Numerous	-9611
▁Olympics	-9612
▁Pizzeria	-9613
▁Schleife	-9614
▁Schürzen	-9615
▁Stabhoch	-9616
▁Telefonz	-9617
▁Ultimate	-9618
▁Wachmann	-9619
▁Wartungs	-9620
▁Zylinder	-9621
▁accompan	-9622
▁aussehen	-9623
▁campfire	-9624
▁circular	-9625
▁communic	-9626
▁creating	-9627
▁darkened	-9628
▁dinosaur	-9629
▁downhill	-9630
▁faulenzt	-9631
▁forested	-9632
▁gefallen	-9633
▁gefangen	-9634
▁gefroren	-9635
▁hardwood	-9636
▁hübschen	-9637
▁krabbelt	-9638
▁lachende	-9639
▁pflanzen	-9640
▁portrait	-9641
▁raincoat	-9642
▁roadside	-9643
▁schlecht	-9644
▁schleift	-9645
▁schnappt	-9646
▁sideways	-9647
▁sniffing	-9648
▁sortiert	-9649
▁spritzen	-9650
▁strecken	-9651
▁tackling	-9652
▁toddlers	-9653
▁trotting	-9654
▁verteilt	-9655
▁watermel	-9656
gestellten	-9657
gestürzten	-9658
rennfahrer	-9659
▁Customers	-9660
▁Dschungel	-9661
▁Fahrzeugs	-9662
▁Flugzeugs	-9663
▁Fotograph	-9664
▁Halskette	-9665
▁Holzboden	-9666
▁Kaninchen	-9667
▁Mülleimer	-9668
▁Sandhügel	-9669
▁Spazierst	-9670
▁SpongeBob	-9671
▁Steinbank	-9672
▁Toiletten	-9673
▁Warnweste	-9674
▁Wassermel	-9675
▁Wassersch	-9676
▁Wintertag	-9677
▁anzusehen	-9678
▁bestellen	-9679
▁chocolate	-9680
▁condition	-9681
▁earphones	-9682
▁entfernen	-9683
▁erhobenen	-9684
▁faulenzen	-9685
▁formeller	-9686
▁liegenden	-9687
▁marinebla	-9688
▁niedrigen	-9689
▁recording	-9690
▁skydiving	-9691
▁spotlight	-9692
▁strolling	-9693
▁swimsuits	-9694
▁teilweise	-9695
▁umzäunten	-9696
▁vergnügen	-9697
▁warehouse	-9698
▁wrestlers	-9699
Bahnstation	-9700
perspektive	-9701
▁Baumstumpf	-9702
▁Dunkelheit	-9703
▁Experiment	-9704
▁Felsklippe	-9705
▁Fischmarkt	-9706
▁Grünfläche	-9707
▁Handschuhe	-9708
▁Hängematte	-9709
▁Regenbogen	-9710
▁Schlagmann	-9711
▁Schwimmflü	-9712
▁Sporthalle	-9713
▁Supermarkt	-9714
▁Tanzfläche	-9715
▁angezogene	-9716
▁attraktive	-9717
▁characters	-9718
▁commercial	-9719
▁displaying	-9720
▁experiment	-9721
▁greyhounds	-9722
▁muskulöser	-9723
▁reflection	-9724
▁suspenders	-9725
▁vorbeigeht	-9726
▁wilderness	-9727
instrumenten	-9728
lasterstraße	-9729
▁Fischernetz	-9730
▁Hockeyspiel	-9731
▁Kajakfahrer	-9732
▁Regenmantel	-9733
▁Seifenblase	-9734
▁Spielsachen	-9735
▁Straßenfest	-9736
▁Strickmütze	-9737
▁Verschieden	-9738
▁Vorderseite	-9739
▁chinesische	-9740
▁gestreifter	-9741
▁hellhäutige	-9742
▁leuchtenden	-9743
▁mountainous	-9744
▁rothaariger	-9745
▁schlafendes	-9746
▁schlammigen	-9747
▁silhouetted	-9748
▁waterskiing	-9749
▁Begeisterung	-9750
▁Firefighters	-9751
▁Hinterbeinen	-9752
▁Kunstgalerie	-9753
▁Metallstange	-9754
▁Neugeborenes	-9755
▁Scheinwerfer	-9756
▁Schlauchboot	-9757
▁Wasserfläche	-9758
▁ausgestreckt	-9759
▁crosscountry	-9760
▁erleuchteten	-9761
▁festgebunden	-9762
▁gestikuliert	-9763
▁mehrfarbigen	-9764
▁orientalisch	-9765
▁synchronized	-9766
▁Demonstranten	-9767
▁Felsformation	-9768
▁Kampfsportler	-9769
▁Müllcontainer	-9770
▁Schwebebalken	-9771
▁Verkaufsstand	-9772
▁Zeitschriften	-9773
▁establishment	-9774
▁transportiert	-9775
▁Hochzeitskleid	-9776
▁orientalischer	-9777
▁schwarzhaarige	-9778
▁silberfarbenen	-9779
▁transportation	-9780
▁ungewöhnlichen	-9781
▁Straßenarbeiter	-9782
08	-9783
95	-9784
Ar	-9785
BH	-9786
IN	-9787
MS	-9788
ON	-9789
Un	-9790
ds	-9791
mx	-9792
no	-9793
va	-9794
yo	-9795
Aid	-9796
Hut	-9797
Rad	-9798
aha	-9799
asm	-9800
asz	-9801
aze	-9802
azz	-9803
fol	-9804
ieh	-9805
inj	-9806
iqu	-9807
kle	-9808
lab	-9809
lad	-9810
mar	-9811
mat	-9812
nte	-9813
oca	-9814
oid	-9815
onn	-9816
ove	-9817
ppe	-9818
pur	-9819
ret	-9820
rät	-9821
sol	-9822
tle	-9823
uds	-9824
uer	-9825
ulk	-9826
upe	-9827
upt	-9828
ura	-9829
ury	-9830
war	-9831
zor	-9832
zuf	-9833
ämm	-9834
äng	-9835
ärb	-9836
üge	-9837
▁12	-9838
▁14	-9839
▁Fu	-9840
▁Pe	-9841
▁av	-9842
▁ei	-9843
▁je	-9844
▁pf	-9845
▁sü	-9846
▁Öl	-9847
Park	-9848
Renn	-9849
Schw	-9850
ably	-9851
achi	-9852
ahre	-9853
alie	-9854
anzt	-9855
apes	-9856
aran	-9857
atic	-9858
avor	-9859
axis	-9860
brer	-9861
cast	-9862
elei	-9863
erie	-9864
ford	-9865
gert	-9866
grau	-9867
grün	-9868
haft	-9869
hole	-9870
häus	-9871
iefs	-9872
iest	-9873
ietn	-9874
inke	-9875
isha	-9876
ison	-9877
läuf	-9878
nequ	-9879
nett	-9880
oggy	-9881
oliz	-9882
orgt	-9883
pipe	-9884
ppen	-9885
pper	-9886
ragt	-9887
rate	-9888
raur	-9889
rett	-9890
rick	-9891
robe	-9892
rohr	-9893
rümp	-9894
seat	-9895
ston	-9896
▁	-9897
e	-9898
n	-9899
i	-9900
a	-9901
r	-9902
t	-9903
s	-9904
o	-9905
l	-9906
h	-9907
d	-9908
u	-9909
g	-9910
m	-9911
c	-9912
.	-9913
w	-9914
b	-9915
p	-9916
f	-9917
k	-9918
A	-9919
E	-9920
y	-9921
M	-9922
ä	-9923
z	-9924
S	-9925
v	-9926
F	-9927
T	-9928
,	-9929
H	-9930
B	-9931
ü	-9932
K	-9933
ß	-9934
G	-9935
P	-9936
Z	-9937
j	-9938
W	-9939
D	-9940
-	-9941
J	-9942
L	-9943
R	-9944
x	-9945
O	-9946
ö	-9947
V	-9948
C	-9949
N	-9950
U	-9951
I	-9952
q	-9953
'	-9954
Y	-9955
"	-9956
2	-9957
“	-9958
„	-9959
1	-9960
3	-9961
0	-9962
4	-9963
X	-9964
5	-9965
é	-9966
Ä	-9967
;	-9968
Ü	-9969
8	-9970
!	-9971
9	-9972
Q	-9973
6	-9974
–	-9975
&	-9976
(	-9977
)	-9978
Ö	-9979
:	-9980
?	-9981
7	-9982
#	-9983
/	-9984
@	-9985
”	-9986
%	-9987
`	-9988
ñ	-9989
’	-9990
$	-9991
_	-9992
à	-9993
è	-9994
‘	-9995
